<unk>	0
<s>	0
</s>	0
/	-2.83607
.	-3.15105
▁	-3.31431
_	-3.70973
▁/	-3.71299
▁-	-3.7765
c	-4.11049
bin	-4.17636
2	-4.18354
s	-4.45634
bash	-4.46043
(	-4.47561
proc	-4.5363
1	-4.58364
e	-4.67873
,	-4.70982
n	-4.71201
▁read	-4.73787
exe	-4.75921
socket	-4.78027
;	-4.78589
link	-4.79811
r	-4.83761
▁"	-4.8904
os	-5.0056
=	-5.08778
'	-5.09876
open	-5.12733
"	-5.13146
v	-5.13225
("	-5.15351
o	-5.15921
t	-5.17661
p	-5.19075
&	-5.28133
",	-5.29605
0	-5.29636
\	-5.32313
f	-5.32666
d	-5.33209
-	-5.34542
▁{	-5.37483
3	-5.39357
");	-5.39717
i	-5.44308
S	-5.47611
▁2>&3	-5.53412
}	-5.54096
memory	-5.56589
usage	-5.62532
usr	-5.63313
#	-5.63728
▁'	-5.63787
<&3	-5.66741
▁>&3	-5.6735
sh	-5.67381
9	-5.67593
5	-5.68631
7	-5.69932
dash	-5.71517
▁in	-5.74248
l	-5.79825
("/	-5.82168
sock	-5.82171
▁'$	-5.82221
)	-5.82852
▁awk	-5.85474
8	-5.87225
a	-5.88172
exec	-5.88192
dev	-5.88517
w	-5.88903
▁}	-5.93467
4	-5.94397
P	-5.95397
▁|	-5.95469
{	-5.96015
10	-5.96244
u	-5.97021
($	-5.97825
rss	-5.99508
exit	-6.00334
▁php	-6.00344
spawn	-6.00351
filen	-6.00361
import	-6.00377
dup	-6.00381
connect	-6.00388
▁while	-6.00403
Socket	-6.00407
(),	-6.00644
("10.	-6.08867
6	-6.09126
:	-6.09912
stat	-6.10453
▁ossec	-6.12537
_2	-6.13951
▁+	-6.15448
cpu	-6.16044
fd	-6.18667
pty	-6.19032
export	-6.21088
pid	-6.2164
new	-6.22661
geten	-6.22715
');	-6.23326
,:	-6.23749
20	-6.2495
);	-6.26265
>	-6.28233
k	-6.28671
host	-6.2915
));	-6.30526
▁H	-6.30789
T	-6.31011
EL	-6.31201
TYPE	-6.33317
_2=	-6.33798
ts	-6.3406
port	-6.3408
")	-6.34186
tcp	-6.34269
17	-6.34954
udp	-6.35235
g	-6.35623
16	-6.36412
m	-6.36565
in	-6.38803
":	-6.41774
printf	-6.4321
h	-6.43658
,"	-6.43943
127.0.0.1	-6.44152
=\"	-6.4673
b	-6.46774
19	-6.47606
>&	-6.48023
▁nc	-6.49067
python	-6.5047
cho	-6.50503
CP	-6.50623
▁ruby	-6.51403
INET	-6.5149
▁3<>	-6.51495
14	-6.51891
")'	-6.52461
_1,	-6.52471
▁for	-6.52563
time	-6.52782
();	-6.5328
▁if	-6.53974
("10.1	-6.54809
53	-6.55062
18	-6.55128
('	-6.56238
cmd	-6.56245
z	-6.57783
stime	-6.58087
x	-6.58099
80	-6.59667
_1	-6.59997
j	-6.6046
15	-6.6126
sys	-6.61332
y	-6.63481
▁(	-6.63743
$_	-6.64015
er	-6.64558
q	-6.68036
24	-6.68662
▁os	-6.68977
13	-6.71715
;'	-6.74623
check	-6.74946
25	-6.75274
print	-6.75853
ossec	-6.76091
11	-6.77005
siphond	-6.78023
▁$	-6.78377
io	-6.78508
23	-6.79802
12	-6.79859
=\"169083	-6.8005
▁c	-6.81148
|	-6.81576
size	-6.84085
▁per	-6.84306
int	-6.84538
if	-6.85461
40	-6.85752
tmp	-6.85871
44	-6.86377
▁>	-6.86444
30	-6.86905
[	-6.8702
2"))	-6.87025
out	-6.87623
!	-6.88287
IO	-6.88361
K	-6.9114
system	-6.91499
::	-6.91521
shell	-6.91739
,2)	-6.91939
▁do	-6.91945
require	-6.91976
STD	-6.91986
?	-6.91996
];	-6.92018
OC	-6.9203
STREAM	-6.92034
▁getline	-6.92037
inet	-6.92038
▁0>&1	-6.92044
]=	-6.92058
0,1	-6.92075
▁cl	-6.9208
STDIN	-6.92086
▁0<&3	-6.92101
[:	-6.9225
){	-6.92609
err	-6.92903
->	-6.92912
_1=	-6.93046
_2);	-6.94058
365	-6.94212
_2,	-6.9439
cgroup	-6.94417
39	-6.94461
38	-6.94667
37	-6.95956
▁sys	-6.96856
36	-6.97766
26	-6.97882
▁sh	-6.97896
ose	-6.98295
count	-6.98378
35	-6.99145
▁fd	-6.99671
▁pty	-6.9971
29	-7.00066
($_	-7.0019
var	-7.01119
((	-7.01188
0\	-7.01371
▁10.1	-7.01991
34	-7.02103
1")	-7.02413
27	-7.03084
28	-7.03222
))	-7.04011
li	-7.0447
▁ga	-7.06314
;$	-7.06388
uge	-7.06398
▁bytes	-7.06437
"$2"\	-7.07646
F	-7.09284
log	-7.10999
33	-7.11198
an	-7.11423
21	-7.11603
50	-7.11817
48	-7.12583
49	-7.13702
43	-7.16183
ip	-7.17407
47	-7.18693
monitor	-7.19875
46	-7.20012
▁e	-7.21412
45	-7.21651
55	-7.21811
eu	-7.22527
60	-7.23427
process	-7.23788
54	-7.24057
sub	-7.24226
cores	-7.25064
▁mi	-7.25886
M	-7.26099
mode	-7.2612
hds	-7.26145
"\"	-7.26149
▁schedule	-7.2615
▁and	-7.26153
kernel	-7.26174
=\""$3"\",	-7.26181
▁mea	-7.26181
=\""$2	-7.26181
ured	-7.26182
▁cu	-7.27267
virtual	-7.28068
null	-7.28081
);$	-7.28628
collector	-7.28652
▁user	-7.28698
state	-7.29162
90	-7.29436
▁io	-7.30309
","	-7.30706
/10.1	-7.31016
59	-7.31322
=\"169084	-7.31864
56	-7.31907
_"$1"	-7.3256
57	-7.32832
▁printf	-7.33209
64	-7.33428
cd	-7.33479
58	-7.33906
R	-7.344
32	-7.35089
isd	-7.36029
alys	-7.36031
31	-7.3716
`	-7.38415
78	-7.38459
98	-7.39088
[0-9]+	-7.3932
total	-7.39334
1;	-7.3958
89	-7.40278
67	-7.40781
70	-7.41467
41	-7.41593
cat	-7.41848
/10.	-7.4222
00	-7.42478
mp	-7.42728
96	-7.42884
fs	-7.43818
▁10	-7.44128
77	-7.44231
99	-7.44661
66	-7.44736
1);	-7.45156
65	-7.45438
68	-7.45574
76	-7.45716
97	-7.45728
87	-7.46234
86	-7.46234
88	-7.46576
8888	-7.4683
2);	-7.46881
79	-7.4727
9001	-7.47496
85	-7.47764
0);	-7.48027
ER	-7.49398
)'	-7.50145
69	-7.50525
Name	-7.50696
51	-7.5137
8000	-7.51734
8080	-7.52373
use	-7.52495
84	-7.52688
ch	-7.52857
▁10.2	-7.53087
94	-7.53668
75	-7.53706
pro	-7.53763
74	-7.54373
ork	-7.54542
95	-7.54806
63	-7.54991
~	-7.55119
$	-7.55206
put	-7.5628
dir	-7.56535
read	-7.57517
▁>>	-7.57892
cu	-7.58163
res	-7.588
>&3	-7.59044
Pe	-7.59087
get	-7.59117
83	-7.59299
93	-7.59565
IN	-7.59723
user	-7.59788
▁rm	-7.59927
BE	-7.60012
0)	-7.60373
tob	-7.60691
execut	-7.60703
_1="10.1	-7.6076
▁run	-7.60907
ddr	-7.61008
AF	-7.61022
loo	-7.61029
pass	-7.61052
ray	-7.61065
ato	-7.61072
▁ar	-7.6116
Dir	-7.61184
failed	-7.61198
hru	-7.61213
▁}}'	-7.6122
▁$0	-7.61281
OUT	-7.6132
▁done	-7.61336
▁lua	-7.61336
▁main	-7.61345
(.+)	-7.61348
addr	-7.61348
ynam	-7.61348
_1),$	-7.61353
(0=>$	-7.61353
▁1=>$	-7.61353
▁2=>$	-7.61353
=="	-7.61363
"}'	-7.61372
(3)	-7.61376
<>	-7.61424
_1);$	-7.61633
))))	-7.61642
cue	-7.62302
gets	-7.6252
($1)	-7.62822
#{	-7.63002
home	-7.63341
06	-7.63378
42	-7.63932
▁}'	-7.64833
_1);	-7.64888
fn	-7.65433
▁IO	-7.65992
()	-7.6619
:(	-7.66625
73	-7.66628
▁!	-7.67461
▁rca	-7.67626
~/	-7.67744
www	-7.69014
_1="10.	-7.69118
▁print	-7.6922
pushg	-7.70059
▁((	-7.72404
rA	-7.72919
▁1	-7.73615
▁>&	-7.73816
61	-7.75676
62	-7.76376
04	-7.77776
82	-7.78086
('10.	-7.79427
lib	-7.80002
,"10.	-7.80066
/0/10.	-7.80527
81	-7.8126
Application	-7.81287
;(	-7.82092
ambari	-7.85165
/22	-7.88007
/10.2	-7.8806
C	-7.88605
`;	-7.9029
Monitor	-7.90749
A	-7.92025
▁cmd	-7.92732
scripts	-7.93807
7\",	-7.94023
mdsd	-7.95347
IPCore	-7.95529
metric	-7.99001
send	-7.99243
HDI	-8.00365
Forest	-8.01381
geneva	-8.01395
▁8125	-8.01413
auditbeat	-8.0345
ClusterMetrics	-8.03991
Cluster	-8.04203
nsight	-8.07598
Host	-8.07984
▁ed	-8.09296
1\",	-8.10529
E	-8.11956
_1="10.2	-8.17171
I	-8.17994
U	-8.20706
Spark	-8.21658
01",	-8.21774
CDP	-8.22021
5\",	-8.27653
_1="127.0.0.1";	-8.31391
azsec	-8.32089
3\",	-8.33374
9\",	-8.36641
",8888);	-8.36818
4\",	-8.37482
▁"$2	-8.3788
3"\	-8.38004
<	-8.38299
",8000);	-8.39202
",443);	-8.39222
D	-8.70481
H	-8.94967
L	-9.01181
O	-9.03656
B	-9.1518
N	-9.43234
Y	-9.72724
]	-9.93236
+	-11.7334
