<unk>	0
<s>	0
</s>	0
/	-2.90155
▁	-3.40492
.	-3.40639
▁/	-3.58359
_	-3.61149
▁-	-3.66337
bin	-4.065
c	-4.07631
bash	-4.34918
(	-4.37198
proc	-4.42505
s	-4.46051
▁read	-4.62646
,	-4.6291
exe	-4.63968
socket	-4.669
link	-4.68685
▁"	-4.77084
e	-4.81814
n	-4.83262
;	-4.87359
r	-4.88299
os	-4.89874
2	-5.0145
open	-5.01608
=	-5.03509
'	-5.10231
("	-5.15145
&	-5.16996
v	-5.17485
▁{	-5.26185
");	-5.29266
o	-5.29901
f	-5.33517
t	-5.41078
▁2>&3	-5.42283
}	-5.43557
-	-5.45095
memory	-5.45463
S	-5.45822
usage	-5.51406
▁'	-5.5191
"	-5.51993
usr	-5.52185
#	-5.52577
p	-5.53477
d	-5.53495
<&3	-5.55623
sh	-5.56161
▁>&3	-5.56169
\	-5.56462
",	-5.56615
i	-5.57191
▁in	-5.62869
("/	-5.69255
sock	-5.71046
dash	-5.71327
3	-5.71434
▁awk	-5.74382
dev	-5.77388
)	-5.77992
▁'$	-5.78222
0	-5.79459
exec	-5.7966
▁}	-5.81946
▁|	-5.8423
{	-5.86547
rss	-5.88376
exit	-5.89208
▁php	-5.89219
spawn	-5.89225
filen	-5.89241
import	-5.89253
dup	-5.89257
connect	-5.89274
▁while	-5.89277
Socket	-5.89279
($	-5.89286
(),	-5.89533
P	-5.95074
stat	-6.00311
▁ossec	-6.01271
▁+	-6.04313
cpu	-6.04927
_2	-6.05303
fd	-6.07558
pty	-6.0816
export	-6.09962
pid	-6.1051
new	-6.11529
geten	-6.11642
');	-6.12162
,:	-6.12347
6	-6.1738
▁H	-6.18055
);	-6.19552
1	-6.21137
EL	-6.22179
TYPE	-6.22192
4	-6.22258
l	-6.22592
ts	-6.228
tcp	-6.23131
udp	-6.24107
8	-6.24675
5	-6.25437
w	-6.2614
>	-6.29727
":	-6.30237
printf	-6.32333
9	-6.33112
7	-6.33199
in	-6.33714
T	-6.35235
,"	-6.36437
")	-6.36605
));	-6.37019
>&	-6.3726
u	-6.37611
:	-6.38188
▁nc	-6.38771
python	-6.39345
cho	-6.39356
CP	-6.40168
▁ruby	-6.40278
INET	-6.4036
▁3<>	-6.40366
")'	-6.41147
host	-6.41349
▁for	-6.41685
();	-6.42191
▁if	-6.42607
_1,	-6.4411
time	-6.44267
cmd	-6.45374
_2=	-6.46054
stime	-6.46925
port	-6.47404
$_	-6.48925
sys	-6.50456
▁(	-6.5056
_1	-6.52203
▁os	-6.56538
k	-6.60343
check	-6.6382
▁c	-6.64211
print	-6.6498
ossec	-6.65231
('	-6.65437
|	-6.70719
size	-6.72959
▁per	-6.73205
▁>	-6.74121
tmp	-6.7466
;'	-6.75261
2"))	-6.75864
[	-6.75955
if	-6.76078
!	-6.77414
IO	-6.77491
out	-6.79057
er	-6.80269
system	-6.80373
io	-6.80514
K	-6.8052
shell	-6.80614
::	-6.80772
,2)	-6.80796
▁do	-6.80799
require	-6.80849
];	-6.80854
STD	-6.80856
?	-6.8087
OC	-6.80898
]=	-6.80904
STREAM	-6.80907
0,1	-6.80909
▁getline	-6.80911
▁0>&1	-6.80916
inet	-6.80943
▁0<&3	-6.80947
STDIN	-6.80967
int	-6.81047
▁cl	-6.81062
[:	-6.81066
err	-6.81474
){	-6.81556
->	-6.81606
_1=	-6.82293
_2);	-6.83211
cgroup	-6.83291
365	-6.8336
_2,	-6.83938
▁sys	-6.85357
▁sh	-6.85871
ose	-6.86285
count	-6.87253
▁fd	-6.8797
▁pty	-6.88023
($_	-6.89801
var	-6.90009
1")	-6.91284
((	-6.92502
▁ga	-6.95247
uge	-6.95285
▁bytes	-6.95312
siphond	-6.96378
"$2"\	-6.96513
▁e	-7.00207
log	-7.01952
F	-7.02962
0\	-7.0598
li	-7.07378
monitor	-7.08749
cd	-7.1066
an	-7.13039
cores	-7.1395
▁mi	-7.14909
mode	-7.14994
"\"	-7.15007
▁and	-7.1502
▁schedule	-7.15025
kernel	-7.15049
=\""$3"\",	-7.15055
▁mea	-7.15055
=\""$2	-7.15055
ured	-7.15061
hds	-7.15101
=\"	-7.1539
);$	-7.16006
virtual	-7.16942
null	-7.16955
▁cu	-7.17018
▁user	-7.1735
;$	-7.17422
collector	-7.17526
state	-7.17621
▁io	-7.18042
ip	-7.19306
1;	-7.20943
_"$1"	-7.21435
▁printf	-7.21466
isd	-7.24889
alys	-7.24905
▁$	-7.24971
))	-7.2714
▁1	-7.27912
[0-9]+	-7.28195
total	-7.28208
0);	-7.31499
fs	-7.32025
","	-7.33145
1);	-7.35241
eu	-7.35416
R	-7.35843
127.0.0.1	-7.35993
2);	-7.36872
a	-7.37748
ER	-7.38255
Name	-7.39571
mp	-7.39912
M	-7.41281
)'	-7.42796
cat	-7.43597
~	-7.44388
ch	-7.44766
g	-7.45422
cu	-7.4562
process	-7.45743
ork	-7.45775
dir	-7.46165
sub	-7.46436
pro	-7.46638
read	-7.46663
▁>>	-7.4676
0)	-7.47484
get	-7.47766
>&3	-7.47848
use	-7.48093
▁rm	-7.48869
BE	-7.48883
IN	-7.49402
▁$0	-7.49403
res	-7.49434
execut	-7.49573
AF	-7.4987
loo	-7.49893
▁run	-7.49922
pass	-7.49927
user	-7.49951
ray	-7.49962
addr	-7.50006
▁ar	-7.50035
tob	-7.5004
ato	-7.50051
Dir	-7.50057
failed	-7.50073
ddr	-7.50084
▁}}'	-7.50096
hru	-7.50099
ynam	-7.50174
OUT	-7.50196
▁done	-7.50206
▁lua	-7.50211
<>	-7.50217
▁main	-7.5022
(.+)	-7.50221
=="	-7.50224
_1),$	-7.50228
▁2=>$	-7.50228
(0=>$	-7.50228
▁1=>$	-7.50228
"}'	-7.50239
(3)	-7.50243
`;	-7.50372
))))	-7.50409
_1);$	-7.50578
put	-7.50803
cue	-7.51029
gets	-7.51412
#{	-7.52067
home	-7.52216
fn	-7.52707
▁}'	-7.53695
z	-7.53776
Pe	-7.54096
:(	-7.54169
▁IO	-7.54316
_1);	-7.54328
rA	-7.55374
()	-7.5538
▁!	-7.5578
~/	-7.56175
▁rca	-7.56388
▁print	-7.57466
www	-7.57899
pushg	-7.58943
▁((	-7.61082
x	-7.61384
▁>&	-7.62125
b	-7.63771
11	-7.64993
nc	-7.6753
h	-7.677
lib	-7.68645
;(	-7.69408
y	-7.70004
29	-7.71709
m	-7.7231
ambari	-7.74039
q	-7.74282
28	-7.75532
($1)	-7.75704
26	-7.75934
Application	-7.7627
35	-7.76294
▁v	-7.77696
37	-7.80006
▁cmd	-7.80677
j	-7.80826
Monitor	-7.80891
15	-7.8096
34	-7.81394
▁host	-7.81408
38	-7.81562
27	-7.82452
▁port	-7.82664
39	-7.82694
scripts	-7.82698
IPCore	-7.84403
▁p	-7.86647
21	-7.86679
▁dash	-7.8713
36	-7.87192
▁=	-7.87703
metric	-7.87876
send	-7.88116
19	-7.8902
12	-7.89113
Forest	-7.90256
geneva	-7.90268
▁8125	-7.90284
20	-7.91527
18	-7.92099
ClusterMetrics	-7.92866
Cluster	-7.93077
13	-7.95841
nsight	-7.96473
30	-7.96718
Host	-7.96857
40	-7.97163
HDI	-7.97168
7\",	-7.9734
▁ed	-7.97822
33	-7.98679
/10	-8.00917
▁siphond	-8.03426
14	-8.04022
wn	-8.06034
10-	-8.07088
17	-8.09966
54	-8.10429
Spark	-8.10532
CDP	-8.11054
16	-8.13189
48	-8.13541
01",	-8.14114
('/	-8.1438
24	-8.16142
45	-8.17188
:/	-8.1751
";	-8.19365
55	-8.20457
57	-8.20517
58	-8.2169
46	-8.22676
64	-8.23538
auditbeat	-8.24509
44	-8.2457
31	-8.25144
51	-8.26157
47	-8.26236
▁mdsd	-8.26707
▁"$2	-8.26761
3"\	-8.26843
/<	-8.27643
65	-8.2793
25	-8.28178
32	-8.29164
99	-8.30451
23	-8.30602
63	-8.30614
from	-8.31167
56	-8.31498
69	-8.32481
74	-8.33072
84	-8.33117
87	-8.33646
▁22	-8.34096
85	-8.34099
80	-8.34158
60	-8.36212
53	-8.36435
83	-8.37148
89	-8.37564
▁53	-8.38847
66	-8.38994
▁sub	-8.39259
▁process	-8.39373
76	-8.3959
43	-8.39611
,"10.	-8.39676
59	-8.40158
52	-8.40244
90	-8.40278
68	-8.40315
97	-8.4043
67	-8.40957
42	-8.41146
'\	-8.4115
▁443	-8.41365
94	-8.41391
10	-8.41443
78	-8.41591
1\",	-8.41599
/22	-8.42399
88	-8.42508
41	-8.42713
▁80	-8.44012
75	-8.4424
AR	-8.44918
95	-8.45377
('10.	-8.46052
98	-8.46073
▁8000	-8.47575
▁8888	-8.47691
61	-8.48675
▁9001	-8.48765
▁8080	-8.48835
sp	-8.50988
49	-8.51208
50	-8.51232
93	-8.5272
=\"1	-8.53129
5\",	-8.53325
73	-8.56285
A	-8.5665
▁:	-8.56832
77	-8.57173
62	-8.58726
_1="127.0.0.1";	-8.5963
92	-8.60425
service	-8.60595
86	-8.61028
81	-8.61711
96	-8.63026
▁Av	-8.64413
rage	-8.6589
("10.	-8.67755
▁$15}	-8.68927
▁$14	-8.69078
▁$16	-8.69432
▁$17	-8.696
fluentd	-8.70179
70	-8.70445
79	-8.71172
71	-8.72317
under	-8.72937
supervisor	-8.72966
▁grep	-8.73954
('10.1	-8.74767
/0/10.	-8.74791
=\"6	-8.78127
>/	-8.78643
",8888);	-8.78773
4\",	-8.80001
scraper	-8.80171
72	-8.82169
",9001);	-8.82771
",443);	-8.84105
,"10.1	-8.84328
91	-8.85249
200	-8.85521
",8000);	-8.85634
",8080);	-8.85863
",22);	-8.85929
82	-8.85936
);`/	-8.8603
nam	-8.86742
▁2>&1	-8.8782
",80);	-8.88557
",53);	-8.89133
eur	-8.89946
mdsd	-8.90331
azsecd	-8.91206
2;	-8.917
1))	-8.92314
Time	-8.94107
disk	-8.9491
Device	-8.95351
_2=9001;	-8.95461
_2=80;	-8.96314
_2=443;	-8.96424
_2=8888;	-8.96611
_2=8080;	-8.96648
ps	-8.96918
168	-8.97005
_2=8000;	-8.97247
_2=22;	-8.97624
207	-8.97673
8000	-8.97951
_2=53;	-8.98325
166	-8.98412
/10.	-8.98448
147	-8.99969
/80	-8.9998
/0/10.1	-9.00675
209	-9.01194
246	-9.01219
9001	-9.02456
6\",	-9.03115
189	-9.03279
208	-9.03663
$	-9.03775
190	-9.03819
169	-9.03834
250	-9.04097
140	-9.04382
134	-9.04389
148	-9.04646
170	-9.04688
194	-9.04729
129	-9.05248
167	-9.05568
206	-9.05594
157	-9.05741
177	-9.05774
143	-9.06017
237	-9.06029
248	-9.06141
238	-9.06217
app	-9.06357
187	-9.06449
205	-9.06464
/53	-9.06801
165	-9.06925
126	-9.07012
179	-9.07248
160	-9.07337
255	-9.07419
247	-9.07491
195	-9.07726
00	-9.07875
107	-9.07881
8888	-9.08129
159	-9.08321
127	-9.08374
176	-9.08381
158	-9.08386
146	-9.08519
local	-9.08778
254	-9.08916
252	-9.09101
243	-9.09149
=\"169083	-9.09258
118	-9.09341
196	-9.09379
186	-9.09403
154	-9.09453
175	-9.09484
253	-9.09497
188	-9.09788
185	-9.10071
130	-9.10118
100	-9.10275
106	-9.10428
193	-9.10465
199	-9.10486
149	-9.10668
136	-9.10672
172	-9.10833
197	-9.10897
244	-9.11015
164	-9.11142
144	-9.11244
139	-9.11356
178	-9.11582
180	-9.11667
108	-9.12218
228	-9.12336
156	-9.12349
251	-9.12447
240	-9.1259
198	-9.12593
145	-9.12773
128	-9.12817
/443	-9.13184
249	-9.1356
137	-9.13784
116	-9.13869
150	-9.14023
161	-9.14076
04	-9.14133
171	-9.14176
hn	-9.14499
138	-9.14596
204	-9.1475
174	-9.14753
114	-9.14847
117	-9.1512
110	-9.15162
=\"1690839	-9.15183
0\",	-9.15401
120	-9.15829
155	-9.1599
153	-9.16118
124	-9.1632
235	-9.16335
245	-9.16569
02",	-9.16683
230	-9.16926
133	-9.1698
_1="10.	-9.1726
239	-9.17399
9\",	-9.17455
173	-9.17469
135	-9.17558
115	-9.17749
105	-9.17984
net	-9.18036
119	-9.18075
_1="10.2	-9.18207
103	-9.18438
219	-9.18784
226	-9.18879
181	-9.18959
163	-9.18961
234	-9.19032
203	-9.19253
236	-9.19321
184	-9.19405
227	-9.19528
217	-9.19686
109	-9.19987
132	-9.20028
151	-9.20379
220	-9.20536
242	-9.2074
125	-9.20792
▁auditbeat	-9.21378
225	-9.21845
231	-9.21946
▁Percent	-9.22595
123	-9.2261
215	-9.22688
233	-9.22733
210	-9.22786
218	-9.22797
232	-9.2333
141	-9.23744
07	-9.23958
122	-9.24288
131	-9.2435
214	-9.24718
cpl	-9.24768
142	-9.25086
241	-9.25112
191	-9.25613
5";	-9.25765
229	-9.26389
06	-9.264
wu	-9.26549
=\"9	-9.26647
104	-9.26971
201	-9.26997
01	-9.27605
113	-9.27618
ob	-9.281
ipcdp	-9.28685
DataInsights	-9.29227
nal	-9.29293
222	-9.29329
224	-9.29385
=\"10	-9.2995
loud	-9.29952
162	-9.30005
08	-9.30172
216	-9.30434
221	-9.30714
6";	-9.31199
('10.2	-9.31361
inter	-9.31491
1";	-9.3199
_1="127.0.0.1";$	-9.32559
2\",	-9.32809
▁azsec	-9.33451
3\",	-9.33803
,"10.2	-9.34011
("10.1	-9.3456
/10.1	-9.34972
▁sec	-9.35334
101	-9.35851
05	-9.36825
223	-9.37609
183	-9.37828
_1="10.1	-9.3787
omi	-9.38937
E	-9.39425
4";	-9.39826
UsedMemory	-9.40703
102	-9.41368
1-	-9.41707
);`	-9.42759
("127.0.0.1","	-9.43663
▁2>	-9.44736
3";	-9.46131
\",	-9.47185
Mem	-9.47287
9";	-9.47832
80";	-9.48354
8080	-9.49328
7";	-9.49716
9\"	-9.50908
8";	-9.51043
US	-9.51052
09	-9.52276
B	-9.5276
",9001))	-9.53428
ames	-9.53985
=\"7	-9.54129
",8080))	-9.54516
8\",	-9.5478
02	-9.54988
",53))	-9.5529
6\"	-9.55441
",8000))	-9.5564
audit	-9.56245
/443;	-9.56472
",443))	-9.56475
400	-9.57038
",80))	-9.57388
/80;	-9.57535
",8888))	-9.57752
/0/10.2	-9.58004
current	-9.58159
/53;	-9.58266
/7/	-9.58367
ipcdpnam	-9.58455
01-	-9.58533
",22))	-9.58643
/22;	-9.58679
/8888;	-9.59432
/8080;	-9.59819
/8000;	-9.60201
03	-9.60816
2";	-9.6169
ag	-9.61801
/9001;	-9.62016
Status	-9.62318
ppe	-9.62901
▁Ip	-9.63335
▁Mem	-9.63961
50.	-9.64382
C	-9.65106
opt	-9.65827
=\"1690844	-9.66838
CL	-9.69556
8888")	-9.69937
41.	-9.70935
Id	-9.71373
,"127.0.0.1:	-9.71399
('127.0.0.1','	-9.72697
=\"8	-9.72904
9001")	-9.72994
8000")	-9.73404
0";	-9.73958
/0/127.0.0.1/	-9.75347
1\"	-9.76112
/10.2	-9.77116
D	-9.77875
36.	-9.79073
Process	-9.79983
77.	-9.80359
("127.0.0.1",443	-9.8064
70.	-9.81075
','80	-9.81093
O	-9.81487
vm	-9.81899
0-9	-9.82499
+,./:_-	-9.82681
7\"	-9.84667
sudo	-9.85196
0-	-9.87096
91.	-9.87415
5\"	-9.87907
49.	-9.88639
4\"	-9.89104
03",	-9.89607
rg	-9.89688
8\"	-9.91121
53";	-9.91642
azsec	-9.92581
86.	-9.92811
308	-9.93271
4";$	-9.94867
Usage	-9.94962
11-	-9.95766
tr	-9.96184
2\"	-9.96595
-16"	-9.96789
esd	-9.96867
96.	-9.96897
8080")	-9.9725
8-0	-9.97649
1";$	-9.97844
▁net	-9.9811
22";	-9.98215
http	-9.99036
▁wr	-9.99061
▁root	-9.99555
spark	-9.9966
3";$	-10.0003
06",	-10.0085
ite	-10.0092
380	-10.0136
300	-10.0149
270	-10.0297
dx	-10.033
79.	-10.0336
785\",	-10.0442
'"'"'	-10.0468
TPS	-10.0474
307	-10.0498
309	-10.0575
3\"	-10.0577
443")	-10.0586
389	-10.061
409	-10.0631
267	-10.0692
306	-10.0739
ron	-10.0742
lInfo	-10.076
348	-10.079
("127.0.0.1",80)	-10.0803
Memory	-10.0808
scx	-10.0821
crontab	-10.0839
tatistic	-10.0885
andle	-10.0885
timestamp	-10.0897
408	-10.09
CT	-10.0912
("127.0.0.1",22)	-10.0913
mation	-10.0943
Uni	-10.0956
wql	-10.0962
OM	-10.0973
388	-10.0977
Privileged	-10.0977
278	-10.0978
▁whe	-10.098
▁PercentUse	-10.0992
04",	-10.0998
ELE	-10.1017
("127.0.0.1",808	-10.1024
397	-10.1044
SC	-10.1049
290	-10.1116
257	-10.1142
340	-10.1146
we	-10.1176
407	-10.1189
("127.0.0.1",800	-10.1243
367	-10.1254
bx	-10.1257
",8000);$	-10.1281
Start	-10.1318
288	-10.1343
02-	-10.1355
297	-10.137
366	-10.1371
377	-10.1384
",22);$	-10.1394
("127.0.0.1",53)	-10.1398
data	-10.1415
287	-10.1438
▁'"'"'	-10.1478
277	-10.1482
12-	-10.1484
",8080);$	-10.1501
266	-10.153
agent	-10.1549
378	-10.1569
used	-10.157
256	-10.1594
/17/	-10.1622
298	-10.1636
",9001);$	-10.1659
Free	-10.1684
ueue	-10.1687
296	-10.1694
53")	-10.1724
:53	-10.1742
",8888);$	-10.175
286	-10.1754
405	-10.1768
=\"64	-10.1773
PATH	-10.1847
260	-10.1869
31.1	-10.1909
305	-10.1935
','53	-10.1946
zv	-10.1971
80")	-10.1995
hdp	-10.2043
','22	-10.2066
500	-10.2092
394	-10.2097
385	-10.2103
:22	-10.2105
:8080	-10.2114
303	-10.2167
398	-10.2238
Lo	-10.224
",80);$	-10.2295
snap	-10.2299
11-0	-10.2355
127.0.0.1",9001)	-10.2384
127.0.0.1",8888)	-10.2394
347	-10.2415
294	-10.2423
396	-10.2436
406	-10.2487
cationT	-10.2499
oozie	-10.2503
Azure	-10.2539
hive	-10.2553
276	-10.2593
SI	-10.2594
','443	-10.26
:80	-10.2631
386	-10.2632
360	-10.2684
404	-10.2693
0-9]	-10.2722
387	-10.2778
Resource	-10.2785
337	-10.2825
:443	-10.2832
",53);$	-10.2855
259	-10.2866
289	-10.2941
279	-10.296
hd	-10.2966
ja	-10.2982
HT	-10.303
fx	-10.3046
Y	-10.3063
ab	-10.3067
375	-10.3095
344	-10.3123
MET	-10.3138
RIC	-10.3138
",443);$	-10.3152
Metric	-10.3152
2.21	-10.318
DIN	-10.3183
elasticsearch	-10.321
364	-10.3238
395	-10.328
304	-10.3282
336	-10.3293
327	-10.3294
=\"11	-10.338
600	-10.3406
06-	-10.3437
356	-10.3442
357	-10.3452
393	-10.3466
apc	-10.3471
17\",	-10.3483
ax	-10.354
269	-10.3552
qa	-10.356
awk	-10.359
(("127.0.0.1",	-10.3607
258	-10.3609
285	-10.3618
ES	-10.3655
=\"1690832	-10.3655
/1/	-10.3695
▁C	-10.3698
339	-10.3704
wa	-10.3753
py	-10.3774
359	-10.3817
($1	-10.3848
BY	-10.3868
353	-10.3911
APP	-10.3961
▁Page	-10.4055
jb	-10.4085
ap	-10.4099
326	-10.4129
399	-10.4165
zg	-10.4182
application	-10.4213
509	-10.422
ll	-10.4239
607	-10.4263
329	-10.4283
8.21	-10.4289
343	-10.429
44.1	-10.4336
2.24	-10.434
cli	-10.4387
output	-10.4406
ad	-10.4435
jq	-10.4439
▁'$9	-10.4476
ae	-10.4493
3','	-10.45
2.18	-10.452
xy	-10.4521
1.21	-10.4574
4_2	-10.4597
/785/	-10.4616
gb	-10.4618
2.11	-10.4632
12",	-10.4639
403	-10.4646
xx	-10.4676
2.19	-10.4678
lj	-10.4712
",8888);`/	-10.4722
379	-10.4726
ta	-10.4726
=\"169084	-10.4757
date	-10.4773
▁'$7	-10.481
al	-10.4817
273	-10.4848
://	-10.4875
ipdinam	-10.4875
4_1	-10.4924
328	-10.4932
my	-10.4948
ole	-10.5028
2.23	-10.5033
wx	-10.5039
Service	-10.5046
2.12	-10.5047
2.22	-10.5072
9001"	-10.5097
Started	-10.5099
by	-10.5099
2.20	-10.5099
566	-10.5184
1_2	-10.5221
589	-10.5245
jw	-10.5257
gx	-10.527
8','	-10.5271
410	-10.5279
ApplicationId	-10.5284
▁'$4	-10.5285
373	-10.5291
zh	-10.5292
496	-10.5317
4','	-10.5323
▁'$6	-10.5335
yy	-10.5339
ing	-10.5339
localhost	-10.5344
zk	-10.5373
376	-10.5376
590	-10.5384
hz	-10.5405
570	-10.5409
467	-10.5414
ty	-10.5463
82.1	-10.5463
567	-10.5474
uq	-10.5482
ah	-10.5492
507	-10.5511
596	-10.5514
bl	-10.5554
8.19	-10.5556
7','	-10.5581
ix	-10.5583
gj	-10.5616
vz	-10.5619
464	-10.5623
am	-10.5645
2.13	-10.5668
xb	-10.5669
ya	-10.5673
=\"1690834	-10.5673
pg	-10.5683
319	-10.5692
2.16	-10.5741
338	-10.5765
N	-10.5775
5.21	-10.5784
yg	-10.5794
22\",	-10.5795
580	-10.5801
▁'$8	-10.5807
5','	-10.584
jh	-10.5841
qh	-10.5872
",9001);`/	-10.5875
489	-10.5878
569	-10.5881
2.15	-10.5887
ful	-10.5889
ea	-10.5892
wg	-10.5896
jj	-10.5903
593	-10.5916
1.12	-10.5929
▁'$5	-10.5935
6_1	-10.5945
la	-10.5958
6_2	-10.596
az	-10.5961
ba	-10.5971
▁http	-10.5993
508	-10.5994
▁'$1	-10.6021
1_1	-10.6023
5.11	-10.6031
447	-10.6032
za	-10.6033
9.21	-10.6042
▁10	-10.6054
aj	-10.6065
449	-10.607
HEA	-10.607
beeline	-10.607
506	-10.608
9','	-10.6083
gz	-10.609
=\"16908410	-10.6096
605	-10.61
3.11	-10.6105
486	-10.6121
00";	-10.6122
client	-10.6128
xj	-10.6141
▁'$0	-10.6141
505	-10.6147
ma	-10.6149
2.10	-10.6157
2.14	-10.6167
mdo	-10.6172
gp	-10.6173
he	-10.6175
800	-10.6177
/43	-10.6179
yb	-10.6182
rm	-10.6194
000	-10.6208
3.19	-10.6208
499	-10.6209
bi	-10.6225
yk	-10.6226
544	-10.6235
318	-10.6238
9_2	-10.6242
Du	-10.6251
xg	-10.6257
Type	-10.6265
hq	-10.6281
4.21	-10.6282
mj	-10.6283
mh	-10.6294
577	-10.6302
2.17	-10.631
",22);`/	-10.631
yp	-10.6311
8.11	-10.6312
($9	-10.6312
Heap	-10.6343
586	-10.6344
459	-10.6353
528	-10.6354
330	-10.6362
Success	-10.6383
DU	-10.6384
0.21	-10.6392
8_1	-10.6401
lu	-10.6411
aq	-10.6444
bj	-10.6448
jg	-10.6459
7.21	-10.646
Platform	-10.6463
Clean	-10.6463
EAN	-10.6463
",80);`/	-10.6464
1.20	-10.6467
1.24	-10.6479
hu	-10.6511
run	-10.6536
gq	-10.6542
zb	-10.6545
568	-10.655
xk	-10.655
jm	-10.6551
418	-10.6553
platform	-10.6563
99\",	-10.6564
=\"16908311	-10.6573
lb	-10.6577
=\"16908449	-10.6589
83\",	-10.6591
th	-10.6604
conf	-10.6605
pa	-10.6611
qj	-10.6618
3.12	-10.6618
gl	-10.662
468	-10.6632
8_2	-10.6639
lg	-10.6639
ul	-10.6671
kj	-10.6671
426	-10.6683
8.18	-10.6693
/10.16	-10.6698
503	-10.6712
jpn	-10.6714
age	-10.6714
604	-10.6734
($7	-10.6736
9_1	-10.6742
1.22	-10.6749
3.21	-10.6766
kg	-10.6776
jx	-10.6777
pm	-10.6793
▁mk	-10.6795
466	-10.6799
yu	-10.6802
xu	-10.6806
mq	-10.6808
7_2	-10.6817
479	-10.6823
ze	-10.6827
1.10	-10.683
1.11	-10.6836
549	-10.684
493	-10.6844
554	-10.6847
470	-10.6857
oh	-10.6858
68\",	-10.6858
59\",	-10.686
sa	-10.6861
mb	-10.6864
527	-10.6883
mm	-10.6884
dg	-10.6885
sb	-10.6887
556	-10.6896
mu	-10.6909
",8000);`/	-10.6915
zq	-10.6919
ga	-10.692
qg	-10.6933
576	-10.6934
48\",	-10.6939
gm	-10.694
8.12	-10.6955
0.18	-10.6956
ipcdpppe	-10.6961
558	-10.6974
ly	-10.698
bb	-10.6996
588	-10.7001
yj	-10.7006
587	-10.7011
fb	-10.7019
jl	-10.7022
7.11	-10.7032
qu	-10.7036
lm	-10.7037
32\",	-10.7046
kq	-10.7048
aw	-10.7051
",443);`/	-10.7064
598	-10.7067
477	-10.7072
om	-10.7075
",53);`/	-10.7075
xm	-10.7078
448	-10.7079
uu	-10.708
▁10.2	-10.7087
457	-10.709
43\",	-10.7118
54\",	-10.7122
565	-10.7127
597	-10.7128
",8080);`/	-10.7128
db	-10.715
8.15	-10.7157
zj	-10.716
uj	-10.7168
MP	-10.7168
594	-10.7171
909	-10.7177
5.15	-10.7177
/4.	-10.7185
zl	-10.7186
6.21	-10.7197
458	-10.7197
($8	-10.7199
446	-10.7202
5.18	-10.721
ar	-10.7223
I	-10.7225
hf	-10.723
pu	-10.7248
333	-10.726
8.22	-10.7266
ku	-10.7278
($0	-10.7281
1.19	-10.7285
",64	-10.7291
560	-10.7292
3.15	-10.7294
zm	-10.7296
484	-10.7306
gg	-10.7308
497	-10.731
fa	-10.7329
5.12	-10.735
63\",	-10.7351
gk	-10.7351
=\"16908405	-10.736
490	-10.7363
xq	-10.7374
4.11	-10.7386
=\"16908450	-10.7394
ib	-10.7403
mt	-10.7405
4.22	-10.7424
8.14	-10.7432
0.11	-10.7442
2.7	-10.7443
8.23	-10.7447
at	-10.7456
498	-10.746
ym	-10.7465
yh	-10.7468
4.20	-10.7472
mg	-10.7475
bz	-10.7476
84\",	-10.7477
603	-10.7478
649	-10.7481
0.22	-10.7489
ml	-10.7492
599	-10.751
ih	-10.7511
456	-10.7521
04-	-10.7524
0.19	-10.7525
gu	-10.7529
um	-10.7531
3.18	-10.7544
tb	-10.7548
/${	-10.7548
98\",	-10.756
0_2	-10.756
1.15	-10.7563
1.13	-10.7564
hb	-10.7567
9.11	-10.7569
2.9	-10.7571
=\"16908312	-10.7572
=\"16908350	-10.7578
bh	-10.7582
ux	-10.7584
yq	-10.7592
hdi	-10.7602
br	-10.7611
($6	-10.7616
▁10.1	-10.7617
jz	-10.762
L	-10.7628
ht	-10.7629
status	-10.763
yz	-10.7634
5_2	-10.7637
jy	-10.7638
557	-10.7654
zu	-10.7655
bq	-10.7656
7.24	-10.7658
3.14	-10.7661
555	-10.7665
537	-10.7689
/5.	-10.7714
="$(	-10.772
609	-10.7729
av	-10.7729
=\"16908378	-10.7735
11",	-10.774
30\",	-10.7746
mx	-10.7748
hg	-10.7749
91\",	-10.7751
ms	-10.7756
oj	-10.7768
=\"16908308	-10.7777
ql	-10.778
0.12	-10.7791
1.18	-10.7793
ak	-10.7797
qm	-10.7797
hm	-10.7809
zy	-10.7817
bo	-10.7829
kb	-10.7831
aus	-10.7838
687	-10.7844
arg	-10.7852
3.16	-10.7856
go	-10.7858
=\"16908394	-10.7859
516	-10.7861
0.20	-10.7862
ai	-10.7877
kk	-10.7911
ig	-10.7914
579	-10.7914
jr	-10.7916
zo	-10.7937
7_1	-10.7937
qk	-10.7939
va	-10.794
bu	-10.7949
629	-10.7951
rb	-10.7954
5.13	-10.7958
▁q	-10.7961
($5	-10.7975
=\"1690842	-10.7978
wm	-10.8001
gw	-10.8031
548	-10.8033
tx	-10.8043
/1.	-10.8045
455	-10.8049
627	-10.8063
7.20	-10.8066
3.10	-10.8066
495	-10.807
bw	-10.8073
6.22	-10.8076
4.18	-10.8082
uz	-10.8083
=\"16908319	-10.8096
7.19	-10.8117
hy	-10.812
4.19	-10.8124
bm	-10.8132
bt	-10.8132
3.20	-10.8137
xw	-10.8139
iy	-10.8142
jf	-10.8152
wb	-10.8154
9.22	-10.8155
3.17	-10.8157
xh	-10.8158
4.15	-10.8176
0_1	-10.8176
ub	-10.8177
476	-10.8187
5_1	-10.8196
564	-10.8213
ld	-10.8215
wh	-10.8238
1.23	-10.8241
tg	-10.8251
514	-10.8259
qx	-10.8262
tm	-10.8274
450	-10.8286
0.24	-10.8287
=\"16908326	-10.8287
93\",	-10.8297
yo	-10.832
qb	-10.8324
391	-10.8328
kz	-10.8332
5.22	-10.8339
44\",	-10.834
km	-10.8342
au	-10.8346
pb	-10.8349
uh	-10.8362
bk	-10.8364
0.13	-10.8369
485	-10.8377
▁2>&1;	-10.8386
ay	-10.8391
▁j	-10.8396
10",	-10.8399
gy	-10.8409
aa	-10.8418
5.19	-10.8419
ipdi	-10.8428
=\"16908419	-10.8432
hi	-10.844
583	-10.844
zz	-10.845
39\",	-10.8452
8.24	-10.8465
hx	-10.8467
jd	-10.8474
7.15	-10.8479
md	-10.8489
qn	-10.849
Pipeline	-10.8498
0.15	-10.8498
im	-10.8499
=\"16908320	-10.8503
3.23	-10.8506
8.20	-10.8506
2.8	-10.851
tj	-10.8518
("127.0.0.1",22	-10.852
jk	-10.8527
mn	-10.8532
iz	-10.8533
lq	-10.8536
=\"16908393	-10.8538
qi	-10.855
▁su	-10.8554
92\",	-10.8559
ry	-10.8563
be	-10.8575
639	-10.858
7.22	-10.8585
($4	-10.8587
pq	-10.8593
wy	-10.8603
1.17	-10.8609
xa	-10.8622
qf	-10.8639
zx	-10.8647
=\"16908379	-10.866
je	-10.8675
595	-10.8679
5.16	-10.8682
8.17	-10.8686
hw	-10.8689
xl	-10.8697
=\"16908441	-10.8699
9.19	-10.8702
9.24	-10.8702
tq	-10.8709
547	-10.871
zn	-10.8717
qr	-10.8722
=\"16908428	-10.8739
uw	-10.874
=\"16908339	-10.8748
xd	-10.8769
4.23	-10.8779
1.16	-10.8784
rx	-10.8787
▁'$3	-10.879
478	-10.88
','3	-10.8801
7.18	-10.8804
lh	-10.8805
▁${	-10.8813
9.20	-10.8813
526	-10.8815
427	-10.8816
ky	-10.8827
641/	-10.8837
xf	-10.8838
gf	-10.8842
mw	-10.8842
8.10	-10.8845
=\"16908348	-10.8847
wl	-10.8848
yv	-10.8864
5.20	-10.887
3.13	-10.8875
465	-10.8878
2.5	-10.889
hh	-10.8895
636	-10.8903
33\",	-10.8905
3.22	-10.8906
8.16	-10.8908
H	-10.891
ge	-10.8918
0.23	-10.8918
wj	-10.8925
kl	-10.8928
hp	-10.8931
fz	-10.8934
5.24	-10.8951
','888	-10.8953
628	-10.8958
7.12	-10.8961
hj	-10.8962
wq	-10.8969
jp	-10.8969
6.11	-10.8988
40\",	-10.899
8.13	-10.8992
4.12	-10.8999
72\",	-10.9011
49\",	-10.9013
9.18	-10.9054
em	-10.9063
6.12	-10.9075
0);`/	-10.9083
ye	-10.9089
1.14	-10.9091
5.23	-10.9097
mk	-10.9098
du	-10.9111
4.24	-10.9115
9.15	-10.9116
xe	-10.9118
gh	-10.9125
login	-10.9127
5.17	-10.9128
zw	-10.9133
6.10	-10.9134
("10.148.	-10.9134
6.19	-10.9142
7.14	-10.9145
mi	-10.9148
qy	-10.9151
yl	-10.9162
463	-10.9177
00\",	-10.9186
ej	-10.9194
kx	-10.9195
=\"16908338	-10.9203
646	-10.9207
ij	-10.9209
bf	-10.9211
("10.84.	-10.9213
gbl	-10.923
("10.236.	-10.9237
("10.54.	-10.9239
80\",	-10.9247
yx	-10.9248
lz	-10.9254
transport	-10.9263
("10.249.	-10.9264
=\"16908404	-10.9267
kw	-10.9268
vx	-10.9272
zd	-10.9276
9.12	-10.9282
qq	-10.9284
4.16	-10.9292
lw	-10.9295
809	-10.9299
jv	-10.9301
0.10	-10.9307
oy	-10.9312
orkload	-10.9316
("10.192.	-10.9318
436	-10.9322
3.24	-10.9333
Mode	-10.9343
("10.29.	-10.9351
xz	-10.9352
zp	-10.9356
ww	-10.9358
0.14	-10.9362
6.18	-10.9368
=\"822	-10.938
428	-10.938
iq	-10.9387
gry	-10.9388
("10.169.	-10.9399
qd	-10.9406
903	-10.9413
49.1	-10.9416
6.24	-10.9421
uy	-10.9426
0.17	-10.9428
ka	-10.943
mz	-10.9435
654	-10.944
/0/127.0.0.1/80	-10.9449
=\"16908325	-10.9449
("10.199.	-10.9452
=\"1690843	-10.9462
xo	-10.9464
=\"51	-10.947
=\"16908328	-10.9472
pol	-10.9475
=\"16908432	-10.9477
Cate	-10.9477
dj	-10.9478
("10.193.	-10.9479
("10.64.	-10.948
55.2	-10.9485
vj	-10.9485
5.10	-10.9489
4.17	-10.9503
("10.129.	-10.9509
jdb	-10.9517
','4	-10.952
440	-10.9522
0.16	-10.9524
Sub	-10.9528
("10.90.	-10.9534
("10.48.	-10.9535
73\"	-10.9538
xp	-10.9549
wz	-10.9561
yw	-10.958
▁zk	-10.9587
ED	-10.9588
("10.57.	-10.9589
jo	-10.9593
417	-10.9598
09\",	-10.9607
("10.230.	-10.9614
("10.63.	-10.9617
6.13	-10.9623
lx	-10.9631
626	-10.9633
rofile	-10.9645
mo	-10.965
xn	-10.9651
fg	-10.9656
18\",	-10.9666
fm	-10.9668
af	-10.9669
dh	-10.9673
("10.45.	-10.9677
6.23	-10.9685
me	-10.97
21\",	-10.9708
3_2	-10.9709
ia	-10.9719
("10.238.	-10.9725
("10.26.	-10.9732
573	-10.9742
633	-10.9744
("10.62.	-10.9755
183.1	-10.976
("10.77.	-10.976
7.13	-10.9767
ju	-10.9771
yt	-10.9772
hl	-10.9779
stream	-10.9779
=\"16908376	-10.9781
("10.154.	-10.9782
("10.197.	-10.9782
("10.42.	-10.9783
qz	-10.9797
kh	-10.9801
("10.165.	-10.981
582	-10.9829
9.23	-10.9835
("10.120.	-10.9841
("10.55.	-10.9843
bp	-10.9848
lk	-10.9852
705	-10.9855
86\",	-10.9855
8.9	-10.9856
fj	-10.9858
("10.233.	-10.9864
("10.99.	-10.9866
("10.143.	-10.9866
("10.151.	-10.9866
nm	-10.9867
bv	-10.9871
2.4	-10.9873
310	-10.9877
("10.82.	-10.9879
ji	-10.988
41\",	-10.9885
7.23	-10.9886
("10.234.	-10.9892
("10.231.	-10.9893
("10.140.	-10.9894
("10.167.	-10.9894
vg	-10.9896
4.10	-10.9913
("10.164.	-10.9922
ho	-10.9922
("10.89.	-10.9923
("10.113.	-10.9923
/127.0.0.1/22	-10.9925
xi	-10.9925
("10.21.	-10.993
=\"16908440	-10.9931
=\"16908357	-10.9938
=\"16908361	-10.9951
("10.86.	-10.9956
473	-10.996
7.17	-10.9968
dq	-10.9968
6.20	-10.9969
("10.247.	-10.9977
("10.101.	-10.9979
704	-10.9981
844	-10.9984
ait	-11.0008
("10.27.	-11.0014
("10.49.	-11.0028
("10.248.	-11.0034
("10.185.	-11.0036
("10.173.	-11.0036
("10.181.	-11.0036
("10.71.	-11.0037
6.15	-11.0038
("10.128.	-11.0039
=\"16908329	-11.0049
vq	-11.0054
ug	-11.0059
("10.213.	-11.0063
("10.242.	-11.0063
("10.32.	-11.0067
yn	-11.0071
("10.106.	-11.0093
("10.93.	-11.0094
("10.78.	-11.0094
("10.127.	-11.0096
("10.91.	-11.0099
696	-11.0101
6.14	-11.0104
mv	-11.0111
29\",	-11.0121
("10.76.	-11.0122
9.13	-11.0128
7.16	-11.0129
wk	-11.0137
7.10	-11.0145
("10.225.	-11.0149
("10.187.	-11.0151
gd	-11.0153
("10.14.	-11.0155
("10.155.	-11.0157
dy	-11.0158
gi	-11.0159
74\",	-11.0172
("10.235.	-11.0179
("10.214.	-11.0179
("10.107.	-11.018
("10.114.	-11.018
("10.40.	-11.0181
("10.170.	-11.0183
908	-11.0187
gn	-11.0187
yf	-11.0188
979	-11.0205
("10.222.	-11.0207
("10.254.	-11.0208
("10.218.	-11.0208
("10.36.	-11.0217
zt	-11.0225
("10.243.	-11.0237
=\"16908377	-11.0239
pj	-11.0254
("10.251.	-11.0266
("10.245.	-11.0266
("10.255.	-11.0266
("10.208.	-11.0266
=\"16908420	-11.0267
("10.95.	-11.0268
("10.160.	-11.0268
("10.83.	-11.0268
("10.72.	-11.0269
("10.52.	-11.0269
("10.186.	-11.027
5.14	-11.0281
697	-11.0282
("10.102.	-11.0297
("10.196.	-11.0299
("10.124.	-11.0301
("10.70.	-11.0303
vb	-11.0321
("10.161.	-11.0326
("10.116.	-11.0327
("10.69.	-11.0327
("10.67.	-11.0328
ex	-11.0337
("127.0.0.1",53	-11.0342
610	-11.0343
=\"16908409	-11.0357
("10.142.	-11.0357
("10.118.	-11.0357
("10.179.	-11.0358
("10.44.	-11.0362
25\",	-11.0367
62\",	-11.037
686	-11.038
("10.175.	-11.0385
("10.43.	-11.0386
dm	-11.0406
MDO	-11.0413
("10.212.	-11.0413
("10.241.	-11.0414
mr	-11.0442
("10.253.	-11.0443
("10.174.	-11.0445
("10.178.	-11.0445
=\"16908347	-11.0446
6.16	-11.0447
yd	-11.0449
("10.96.	-11.045
("10.28.	-11.0452
vy	-11.0455
sq	-11.0457
("10.117.	-11.0475
("10.103.	-11.0475
("10.133.	-11.0481
xv	-11.0483
("10.131.	-11.0491
config	-11.0503
("10.163.	-11.0505
("10.110.	-11.0505
("10.81.	-11.0506
sar	-11.0507
4.13	-11.0519
','808	-11.0524
("10.100.	-11.0535
("10.85.	-11.0536
("10.51.	-11.0536
("10.130.	-11.0536
("10.137.	-11.0536
health	-11.0562
("10.172.	-11.0565
("10.112.	-11.0565
("10.134.	-11.0567
("10.37.	-11.0567
/127.0.0.1/53	-11.0579
($3	-11.0592
("10.202.	-11.0593
("10.188.	-11.0595
("10.138.	-11.0596
("10.123.	-11.0598
jt	-11.06
("10.33.	-11.0606
778	-11.0608
=\"16908437	-11.061
887	-11.0623
("10.108.	-11.0625
("10.119.	-11.0626
0.9	-11.0627
=\"16908429	-11.0628
qw	-11.0631
nq	-11.0638
("10.6.	-11.0651
",8888);`	-11.0653
microsoft	-11.0655
("10.73.	-11.0656
("10.58.	-11.0657
("10.132.	-11.0657
("10.149.	-11.0665
/127.0.0.1/9001	-11.0666
02\"	-11.0668
69\",	-11.0671
/127.0.0.1/53;	-11.0671
fq	-11.0689
("10.38.	-11.069
qp	-11.0699
34\"	-11.0705
202/	-11.0707
("10.250.	-11.0715
("10.200.	-11.0715
("10.147.	-11.0717
/127.0.0.1/8000	-11.0723
("10.9.	-11.0735
3.7	-11.0744
("10.228.	-11.0746
("10.204.	-11.0746
("10.201.	-11.0746
3_1	-11.075
653/	-11.0768
9.10	-11.0769
("10.152.	-11.0779
("10.59.	-11.0779
("10.79.	-11.0783
("10.182.	-11.0788
','5	-11.0792
hk	-11.0797
("10.223.	-11.0807
("10.209.	-11.0808
("10.171.	-11.0809
("10.74.	-11.081
da	-11.0829
45.2	-11.0829
("10.224.	-11.0838
("10.240.	-11.0839
("10.146.	-11.084
vh	-11.0848
ha	-11.0853
js	-11.0858
3.6	-11.0862
("10.109.	-11.0871
33.2	-11.0884
805	-11.0891
oq	-11.0899
("10.211.	-11.09
("10.46.	-11.0903
("10.34.	-11.0906
2.25	-11.0908
1.25	-11.0908
4.14	-11.0908
9.17	-11.0914
211/	-11.0915
=\"16908427	-11.0922
=\"16908359	-11.0931
("10.246.	-11.0932
("10.205.	-11.0932
("10.244.	-11.0932
("10.190.	-11.0933
("10.159.	-11.0934
("10.61.	-11.0934
("10.66.	-11.0934
("10.135.	-11.0935
("10.153.	-11.0938
oz	-11.094
1.7	-11.0946
("10.156.	-11.0969
56.2	-11.097
8.7	-11.0975
5.8	-11.0976
("10.88.	-11.0997
("10.221.	-11.1026
8.6	-11.1028
("10.180.	-11.1028
("10.194.	-11.1028
yi	-11.1029
hrift	-11.103
65\"	-11.1043
559	-11.1046
78\",	-11.105
("10.195.	-11.106
88\",	-11.1061
9.14	-11.1064
53.2	-11.1067
38\",	-11.1068
79\"	-11.108
1.6	-11.1088
("10.136.	-11.1096
og	-11.11
=\"16908355	-11.1116
ppegbl	-11.1116
6.17	-11.1117
("10.145.	-11.1127
U	-11.1141
788	-11.1146
START	-11.1152
06\",	-11.1159
uk	-11.1162
sj	-11.1167
ua	-11.1181
111/	-11.1181
tiat	-11.1185
/127.0.0.1/8080;	-11.1194
hr	-11.1198
/127.0.0.1/9001;	-11.1203
956	-11.1204
("10.203.	-11.1218
zr	-11.122
=\"16908418	-11.1231
5.7	-11.1237
bg	-11.1244
("10.166.	-11.1252
("10.198.	-11.1252
("10.98.	-11.1253
qt	-11.1254
94\"	-11.1272
px	-11.1273
("10.227.	-11.1282
("10.252.	-11.1282
code	-11.1283
42\",	-11.1291
("10.13.	-11.1292
mf	-11.1314
ego	-11.1315
03-	-11.1316
("10.126.	-11.1319
=\"16908402	-11.1319
=\"16908416	-11.1329
=\"16908309	-11.133
("10.104.	-11.135
("10.35.	-11.1353
8.8	-11.136
=\"35	-11.1365
/127.0.0.1/80	-11.1366
=\"16908356	-11.1368
file	-11.1371
1.8	-11.1374
DBC	-11.1379
("10.141.	-11.1386
ph	-11.1396
/127.0.0.1/443	-11.1402
31\",	-11.1405
989	-11.1417
5.9	-11.1426
/10.22	-11.1433
("10.229.	-11.1445
("10.75.	-11.1448
("10.60.	-11.1448
=\"16908360	-11.146
0.8	-11.1462
▁200	-11.1475
("10.94.	-11.1482
76\",	-11.1489
13\",	-11.1497
dz	-11.1508
121/	-11.1523
192/	-11.1545
bd	-11.1564
qo	-11.1565
52\",	-11.1591
("10.4.	-11.1602
5.4	-11.1604
0-9]4	-11.163
zf	-11.1636
9.7	-11.1647
42\"	-11.1677
9.16	-11.168
▁gw	-11.1691
xt	-11.1704
7_1,	-11.1707
("10.97.	-11.1715
=\"16908421	-11.1726
=\"16908322	-11.173
64\",	-11.1745
58\",	-11.1754
hv	-11.1755
/127.0.0.1/8080	-11.1771
/10.13	-11.1773
88";	-11.1774
45\"	-11.1787
/127.0.0.1/22;	-11.1806
3.4	-11.1827
43\"	-11.1839
/127.0.0.1/8888	-11.1839
575/	-11.184
22\"	-11.1858
213/	-11.1887
Percent	-11.1895
13\"	-11.1901
=\"16908417	-11.1921
/127.0.0.1/80;	-11.1931
}'"'"'	-11.1951
581/	-11.1961
/127.0.0.1/8000;	-11.1971
=\"16908364	-11.1987
",9001);`	-11.1995
7.9	-11.2018
=\"16908403	-11.2024
82\",	-11.2054
=\"16908389	-11.2057
3.5	-11.2067
638	-11.2085
112/	-11.2094
zi	-11.2095
677	-11.2111
91\"	-11.2117
63\"	-11.2123
51\",	-11.2134
14\"	-11.2136
/127.0.0.1/8888;	-11.2137
=\"16908327	-11.2139
("10.0.	-11.2143
jn	-11.2162
4.1	-11.2163
3.9	-11.2175
23\",	-11.2201
=\"16908413	-11.224
7.8	-11.2263
9_1,	-11.2271
",80);`	-11.2293
=\"33	-11.2293
2.3	-11.2301
("10.39.	-11.231
=\"16908345	-11.2313
0.5	-11.2315
648/	-11.2332
=\"16908352	-11.2337
container	-11.2341
85\"	-11.2347
8.25	-11.2359
=\"16908411	-11.236
56\",	-11.2364
702/	-11.2382
46\",	-11.2385
=\"118	-11.2429
=\"16908414	-11.2458
794/	-11.2462
=\"16908438	-11.2466
1_1,	-11.2468
3.8	-11.2473
1.9	-11.2474
08\",	-11.2476
fra	-11.2485
7.4	-11.25
rj	-11.252
=\"16908422	-11.2526
=\"16908397	-11.253
32\"	-11.2551
3.3	-11.2558
182/	-11.2562
848	-11.2565
",8000);`	-11.2588
In	-11.2597
767/	-11.26
/127.0.0.1/443;	-11.261
Allocated	-11.2633
0.7	-11.2634
71\"	-11.269
399/	-11.2704
6.25	-11.271
78\"	-11.2717
=\"16908436	-11.2725
684	-11.2726
37\"	-11.2733
8.4	-11.2748
=\"16908408	-11.2787
83\"	-11.281
559/	-11.2812
079	-11.2822
433	-11.2824
7.7	-11.2829
543/	-11.2844
898/	-11.285
585/	-11.2869
899/	-11.2892
7.5	-11.2897
71\",	-11.2906
pz	-11.2916
20\",	-11.2921
=\"16908315	-11.2923
434/	-11.2925
url	-11.2954
930/	-11.2958
7.6	-11.2964
25\"	-11.2969
stratus	-11.2973
31\"	-11.2975
("10.30.	-11.2988
=\"54	-11.2995
",8080);`	-11.3001
6.9	-11.3006
70\",	-11.3036
SUCCEED	-11.305
379/	-11.3086
▁10.0.	-11.3096
",443);`	-11.3104
("10.216.	-11.3112
9.25	-11.312
4.25	-11.3122
284/	-11.3153
=\"16908316	-11.3166
349/	-11.3168
=\"16908380	-11.3168
753/	-11.3178
=\"16908335	-11.3181
",53);`	-11.3184
03\"	-11.3185
99",	-11.3203
72\"	-11.3206
1/8000	-11.321
51\"	-11.3228
','1	-11.3244
ansible	-11.3245
613/	-11.3252
CPU	-11.3266
=\"16908430	-11.3279
("10.232.	-11.3294
("10.168.	-11.3297
("10.217.	-11.3312
=\"16908366	-11.3314
422/	-11.3326
698/	-11.3326
847/	-11.3335
091/	-11.334
",22);`	-11.3364
27\"	-11.3365
=\"16908340	-11.3368
("10.189.	-11.3377
("10.226.	-11.3388
=\"1690838	-11.3397
54\"	-11.3404
929/	-11.3418
401/	-11.3438
("10.215.	-11.3451
0.6	-11.3468
=\"1019	-11.3471
93\"	-11.3487
9.6	-11.3489
=\"836	-11.3493
("10.115.	-11.3501
212/	-11.3514
=\"16908354	-11.3529
785/	-11.3532
425/	-11.3541
541/	-11.3543
=\"16908365	-11.3563
=\"16908331	-11.3563
875/	-11.357
11\"	-11.3605
4/8888	-11.361
791/	-11.3623
oms	-11.3626
376/	-11.3632
▁oozie	-11.3635
609/	-11.3635
=\"16908353	-11.3639
36\"	-11.3642
97\"	-11.3673
291/	-11.3688
26\",	-11.369
706/	-11.3692
4.7	-11.37
1.5	-11.3704
("10.239.	-11.3714
5.5	-11.372
354/	-11.3722
1690	-11.3729
009/	-11.3743
868/	-11.3756
659	-11.3773
mR	-11.3791
675/	-11.38
737/	-11.3813
1.4	-11.3829
server	-11.3855
("10.176.	-11.3856
5.25	-11.3861
("10.122.	-11.3862
9/8000	-11.3869
("10.162.	-11.387
768/	-11.3871
786/	-11.388
=\"16908412	-11.3882
=\"16908367	-11.3886
env	-11.3891
Script	-11.3897
745/	-11.391
301/	-11.391
35\"	-11.3928
0.25	-11.3942
749/	-11.3942
3.25	-11.3945
("10.125.	-11.3952
793/	-11.3954
etc	-11.3957
931/	-11.396
("10.121.	-11.3972
08\"	-11.3975
=\"16908310	-11.3977
default	-11.3982
775	-11.3986
918/	-11.3998
372/	-11.4012
50\",	-11.4019
857/	-11.4032
("10.220.	-11.4047
302/	-11.4066
780/	-11.4081
835/	-11.409
352/	-11.4117
38\"	-11.4118
("10.47.	-11.412
,"127.0.0.1:80	-11.4137
("10.150.	-11.4159
("10.50.	-11.4163
524/	-11.4163
563/	-11.4165
("10.210.	-11.4173
281/	-11.4176
822/	-11.4179
751/	-11.4189
765/	-11.4191
925/	-11.42
933/	-11.422
625/	-11.4223
264/	-11.425
=\"16908317	-11.4253
469/	-11.426
29\"	-11.4262
661/	-11.4292
722/	-11.4321
64\"	-11.4326
▁10.164.	-11.4328
271/	-11.4332
7.25	-11.4333
9.9	-11.4334
69\"	-11.4334
602/	-11.4338
mem	-11.4369
4.4	-11.4369
0.4	-11.4382
=\"49	-11.4392
761/	-11.4392
430/	-11.4394
adm	-11.44
893/	-11.4403
=\"16908401	-11.4424
24\"	-11.4428
839/	-11.445
861/	-11.446
9.5	-11.4478
5/8080	-11.4483
523/	-11.4483
41\"	-11.4484
17\"	-11.4494
024/	-11.4501
700/	-11.4506
295/	-11.4516
152/	-11.4539
975/	-11.4542
071/	-11.4544
2/8888	-11.4545
▁10.247.	-11.455
6.7	-11.4552
4/9001	-11.4557
("10.65.	-11.456
9/8888	-11.4568
("10.144.	-11.4574
870/	-11.4579
("10.53.	-11.4584
("10.105.	-11.4584
▁10.169.	-11.4595
882/	-11.4619
966/	-11.4641
8/8888	-11.4651
420/	-11.4652
730/	-11.4662
098/	-11.4686
▁10.234.	-11.4687
421/	-11.4706
("10.10.	-11.4709
7/9001	-11.4718
797/	-11.4727
igh	-11.4731
539/	-11.4743
68\"	-11.4755
665/	-11.4757
416/	-11.4761
856/	-11.4766
638/	-11.4778
Report	-11.4784
540/	-11.4786
=\"16908370	-11.4795
911/	-11.4811
094/	-11.4816
741/	-11.482
▁10.56.	-11.4823
310/	-11.4824
=\"16908386	-11.4835
532/	-11.4839
4/8080	-11.4846
=\"16908446	-11.4848
299/	-11.4849
368/	-11.4851
934/	-11.4862
759/	-11.4865
744/	-11.4866
▁10.225.	-11.4872
=\"16908442	-11.4872
890/	-11.4886
283/	-11.4903
851/	-11.4907
▁10.59.	-11.4916
▁10.210.	-11.4917
881/	-11.492
551/	-11.4924
921/	-11.4933
274/	-11.4934
976/	-11.4947
("10.111.	-11.4949
679/	-11.496
sessions	-11.4962
▁10.60.	-11.4963
262/	-11.4972
=\"16908344	-11.4974
019/	-11.4982
Path	-11.5009
922/	-11.5021
('127.0.0.1','80	-11.5044
804/	-11.5046
:8998	-11.5057
ipdippe	-11.5058
▁10.232.	-11.5058
606/	-11.5061
037/	-11.5062
886/	-11.5063
653\",	-11.507
624/	-11.5076
280/	-11.5078
879/	-11.509
_2=63	-11.5093
=\"16908324	-11.5094
_2=64	-11.5098
592/	-11.51
▁sl	-11.5101
▁10.139.	-11.5105
9.4	-11.5106
877/	-11.5107
843/	-11.5123
=\"16908439	-11.5125
▁10.38.	-11.5127
4.6	-11.5129
901/	-11.515
▁10.86.	-11.5152
545/	-11.5153
▁10.132.	-11.5153
▁10.126.	-11.5154
10001/	-11.5154
▁10.3	-11.5159
644/	-11.5159
513/	-11.5164
=\"16908435	-11.5164
982/	-11.5184
275/	-11.5187
=\"16908399	-11.5187
897/	-11.5188
688/	-11.5192
source	-11.5199
ltes	-11.52
▁10.173.	-11.52
98\"	-11.5201
▁10.145.	-11.5201
▁10.186.	-11.5201
▁10.129.	-11.5201
ipdieur	-11.5202
eep	-11.5212
960/	-11.5236
55\"	-11.5236
691/	-11.5247
skype	-11.5248
=\"267	-11.5248
▁10.99.	-11.5248
▁10.212.	-11.5249
▁10.179.	-11.5249
811/	-11.5253
cliservice	-11.5256
620/	-11.5257
1/8080	-11.5264
941/	-11.5272
907/	-11.5272
=\"16908314	-11.5275
916/	-11.5278
072/	-11.5278
601/	-11.5283
4.5	-11.5293
▁10.160.	-11.5297
▁10.218.	-11.5297
▁10.238.	-11.5297
▁10.235.	-11.5297
(("127.0.0.1",80	-11.5298
▁10.128.	-11.5298
▁10.16.	-11.5302
7.3	-11.5309
536/	-11.5329
261/	-11.5337
▁10.89.	-11.5344
▁10.78.	-11.5344
707/	-11.5345
▁10.105.	-11.5345
451/	-11.5347
621/	-11.5351
9.8	-11.5362
757/	-11.5363
892/	-11.5378
46\"	-11.5378
460/	-11.5392
727/	-11.5393
▁10.166.	-11.5394
▁10.124.	-11.5395
618/	-11.5399
471/	-11.5433
917/	-11.5436
622/	-11.5442
▁10.106.	-11.5443
▁10.237.	-11.5443
▁10.227.	-11.5444
873/	-11.5445
▁"01"	-11.5447
059/	-11.5449
519/	-11.5453
0/8000	-11.5455
265/	-11.5456
990/	-11.5457
351/	-11.546
412/	-11.5461
670/	-11.5467
689/	-11.547
▁10.226.	-11.5494
=\"679	-11.5513
504/	-11.5514
/419	-11.5517
003/	-11.5527
924/	-11.5532
867/	-11.5533
949/	-11.5534
_2=51	-11.5538
937/	-11.5539
62\"	-11.5541
▁10.243.	-11.5542
▁10.107.	-11.5542
▁10.174.	-11.5542
▁10.246.	-11.5542
718/	-11.5542
▁10.119.	-11.5542
662/	-11.5546
884/	-11.5546
▁10.149.	-11.5547
_2=43	-11.5554
_2=57	-11.5559
535/	-11.5565
263/	-11.5566
5/9001	-11.5569
272/	-11.5572
533/	-11.5574
896/	-11.5575
880/	-11.5576
522/	-11.5577
4.9	-11.558
=\"258	-11.5581
=\"16908415	-11.5586
891/	-11.5589
920/	-11.5589
631/	-11.5589
▁10.53.	-11.5591
▁10.140.	-11.5591
▁10.115.	-11.5592
437/	-11.5599
952/	-11.5613
849/	-11.5616
674/	-11.5631
052/	-11.5634
888/	-11.5637
▁10.58.	-11.5641
▁10.185.	-11.5641
782/	-11.5647
635/	-11.5647
316/	-11.5652
066/	-11.5653
324/	-11.5653
18\"	-11.5656
487/	-11.5659
=\"16908318	-11.566
_2=49	-11.5664
889/	-11.5665
57\"	-11.5667
325/	-11.5681
801/	-11.5685
▁10.74.	-11.5691
▁10.165.	-11.5692
▁10.214.	-11.5692
701/	-11.5693
994/	-11.5707
771/	-11.5709
842/	-11.5722
988/	-11.5726
_2=53	-11.5727
746/	-11.5732
803/	-11.5733
550/	-11.5738
681/	-11.5741
▁10.135.	-11.5743
863/	-11.5743
▁10.253.	-11.5744
=\"16908426	-11.5748
972/	-11.5749
010/	-11.575
667/	-11.575
369/	-11.5752
▁10.40.	-11.5756
845/	-11.5758
417/	-11.5761
028/	-11.5771
623/	-11.5782
=\"676	-11.5785
819/	-11.5787
=\"16908333	-11.5792
▁10.76.	-11.5792
668/	-11.5793
▁10.146.	-11.5793
▁10.114.	-11.5793
▁10.188.	-11.5793
UE	-11.5793
▁10.230.	-11.5794
▁10.127.	-11.5794
▁10.245.	-11.5795
▁10.228.	-11.5795
865/	-11.5798
531/	-11.581
971/	-11.5813
717/	-11.5813
084/	-11.5815
4.8	-11.5824
978/	-11.5826
958/	-11.5827
_2=54	-11.584
472/	-11.5841
435/	-11.5842
▁10.219.	-11.5844
▁10.111.	-11.5844
▁10.236.	-11.5846
▁10.249.	-11.5848
▁10.182.	-11.5851
859/	-11.586
703/	-11.5866
314/	-11.5868
▁10.32.	-11.5879
475/	-11.5882
▁10.37.	-11.5883
▁10.61.	-11.5895
▁10.193.	-11.5895
▁10.180.	-11.5895
▁10.190.	-11.5895
429/	-11.5903
431/	-11.5908
▁10.42.	-11.5908
▁10.6.	-11.5911
997/	-11.5915
063/	-11.5917
068/	-11.5922
970/	-11.5922
617/	-11.5923
331/	-11.5936
967/	-11.594
hadoop	-11.5946
▁10.68.	-11.5946
▁10.109.	-11.5947
▁10.147.	-11.5947
▁10.175.	-11.5947
/10.76.	-11.5947
▁10.142.	-11.5947
▁10.125.	-11.5948
093/	-11.595
384/	-11.5951
=\"16908406	-11.5952
▁10.14.	-11.5952
▁10.30.	-11.5952
692/	-11.5956
6.5	-11.5957
▁10.44.	-11.5959
▁10.7.	-11.596
869/	-11.5961
501/	-11.5962
823/	-11.5973
950/	-11.5983
796/	-11.5985
734/	-11.5985
_2=48	-11.5991
955/	-11.5998
▁10.77.	-11.5998
▁10.62.	-11.5998
▁10.203.	-11.5999
▁10.158.	-11.5999
▁10.162.	-11.5999
▁10.187.	-11.5999
▁10.250.	-11.6
▁10.141.	-11.6
▁10.241.	-11.6
▁10.45.	-11.6009
774/	-11.6014
878/	-11.6016
317/	-11.6017
999/	-11.6018
795/	-11.6022
779/	-11.6024
676/	-11.6026
▁10.31.	-11.6028
943/	-11.6033
9/8080	-11.6033
6/8888	-11.604
959/	-11.604
▁10.97.	-11.605
▁10.91.	-11.605
▁10.254.	-11.6051
▁10.181.	-11.6051
▁10.215.	-11.6051
▁10.134.	-11.6051
▁10.133.	-11.6052
▁10.131.	-11.6055
016/	-11.6059
081/	-11.606
86\"	-11.6061
392/	-11.6061
860/	-11.6062
968/	-11.6065
885/	-11.6066
▁10.21.	-11.6068
453/	-11.6069
574/	-11.6072
/10.117.	-11.6075
481/	-11.6077
902/	-11.608
048/	-11.6083
grep	-11.6085
9/9001	-11.6086
=\"16908375	-11.6087
864/	-11.6091
023/	-11.6092
947/	-11.6096
571/	-11.6098
▁10.67.	-11.6102
▁10.177.	-11.6104
▁10.156.	-11.6105
611/	-11.6111
666/	-11.6116
640/	-11.6123
▁10.17.	-11.6129
932/	-11.613
840/	-11.6131
764/	-11.6134
268/	-11.6138
808/	-11.6139
438/	-11.6144
714/	-11.615
▁10.65.	-11.6155
▁10.108.	-11.6156
▁10.152.	-11.6156
▁10.122.	-11.6158
▁10.255.	-11.6159
647/	-11.6165
987/	-11.617
671/	-11.6171
005/	-11.6177
642/	-11.6179
▁10.29.	-11.6188
=\"16908341	-11.6191
▁10.83.	-11.6208
▁10.101.	-11.6209
▁10.202.	-11.6209
▁10.205.	-11.6209
292/	-11.622
613\",	-11.6223
025/	-11.6224
634/	-11.6225
069/	-11.6228
▁10.24.	-11.6231
/10.67.	-11.6235
738/	-11.626
313/	-11.6261
▁10.66.	-11.6261
▁10.93.	-11.6261
▁10.96.	-11.6261
▁10.110.	-11.6262
▁10.194.	-11.6262
▁10.168.	-11.6262
▁10.207.	-11.6262
▁10.112.	-11.6262
520/	-11.6263
806/	-11.6263
482/	-11.6272
▁10.43.	-11.6276
798/	-11.6278
614/	-11.6297
moj	-11.6298
017/	-11.6298
/10.124.	-11.6321
462/	-11.6325
637/	-11.633
494/	-11.6342
075/	-11.6343
695/	-11.6355
_2=52	-11.6359
049/	-11.6361
097/	-11.6367
▁10.54.	-11.6368
▁10.50.	-11.6368
096/	-11.6369
▁10.200.	-11.637
▁10.221.	-11.6371
▁10.150.	-11.6371
=\"677	-11.6379
060/	-11.6384
424/	-11.6391
984/	-11.6392
710/	-11.6397
/10.108.	-11.64
390/	-11.6406
876/	-11.6406
723/	-11.6409
452/	-11.641
=\"16908362	-11.6412
981/	-11.642
027/	-11.642
▁10.51.	-11.6422
▁10.92.	-11.6422
▁10.148.	-11.6423
961/	-11.6425
923/	-11.6428
739/	-11.6435
/10.224.	-11.6442
944/	-11.6446
927/	-11.6451
/10.109.	-11.6452
525/	-11.6464
342/	-11.6466
371/	-11.6468
322/	-11.6473
▁10.80.	-11.6477
725/	-11.6477
▁10.154.	-11.6477
▁10.143.	-11.6478
▁10.251.	-11.6478
▁10.209.	-11.6478
▁10.211.	-11.6478
928/	-11.6478
▁10.138.	-11.6478
11000/	-11.6478
▁10.136.	-11.648
078/	-11.6481
962/	-11.6483
=\"16908349	-11.6486
810/	-11.6488
977/	-11.6489
415/	-11.6502
821/	-11.6514
756/	-11.6528
311/	-11.6531
▁10.84.	-11.6531
▁10.81.	-11.6531
▁10.87.	-11.6531
▁10.82.	-11.6532
853/	-11.6532
▁10.113.	-11.6532
▁10.102.	-11.6533
▁10.120.	-11.6534
615/	-11.6534
825/	-11.6535
362/	-11.6535
829/	-11.6535
608/	-11.6546
/10.75.	-11.6546
032/	-11.6553
655/	-11.6554
/10.38.	-11.6555
632/	-11.6555
334/	-11.6556
041/	-11.6557
▁10.35.	-11.6562
053/	-11.6562
491/	-11.6568
816/	-11.6569
510/	-11.6574
/10.204.	-11.6577
022/	-11.6586
▁10.75.	-11.6586
▁10.95.	-11.6586
▁10.167.	-11.6587
▁10.199.	-11.6587
▁10.239.	-11.6588
▁10.224.	-11.6589
913/	-11.6592
/10.42.	-11.6593
_2=32	-11.6602
0);`	-11.6603
940/	-11.6605
/10.173.	-11.6606
▁10.39.	-11.6609
974/	-11.6612
709/	-11.6614
core	-11.6615
650/	-11.6617
▁'--	-11.6621
/10.178.	-11.6623
073/	-11.6624
770/	-11.6626
542/	-11.6636
▁10.79.	-11.6642
▁10.72.	-11.6642
▁10.197.	-11.6642
▁10.204.	-11.6642
▁10.130.	-11.6643
▁10.201.	-11.6643
▁10.137.	-11.6643
▁10.121.	-11.6644
▁10.153.	-11.6644
742/	-11.6645
423/	-11.6648
850/	-11.6651
/10.146.	-11.6654
046/	-11.6654
▁10.5.	-11.6658
350/	-11.666
=\"16908313	-11.6663
872/	-11.6667
026/	-11.6671
951/	-11.6682
871/	-11.6687
980/	-11.6689
▁10.90.	-11.6697
419/	-11.6697
▁10.151.	-11.6698
▁10.206.	-11.6698
▁10.208.	-11.6698
▁10.27.	-11.6699
969/	-11.6699
_2=60	-11.6702
dump	-11.6702
663/	-11.6703
/10.74.	-11.6705
▁10.144.	-11.6705
▁10.231.	-11.6712
657/	-11.6713
▁10.11.	-11.6714
087/	-11.6715
=\"558	-11.6719
320/	-11.6727
/10.210.	-11.6727
512/	-11.6731
089/	-11.6735
/10.137.	-11.6736
/10.167.	-11.6746
_2=61	-11.6747
▁10.85.	-11.6753
▁10.88.	-11.6753
▁10.161.	-11.6754
▁10.192.	-11.6754
▁10.248.	-11.6754
▁10.103.	-11.6754
▁10.123.	-11.6755
▁10.229.	-11.6756
=\"818	-11.6761
480/	-11.6762
▁10.47.	-11.6773
064/	-11.6773
616/	-11.6778
67\"	-11.6779
_2=62	-11.678
945/	-11.6792
953/	-11.6796
▁10.63.	-11.6809
▁10.98.	-11.6809
▁10.189.	-11.681
▁10.171.	-11.681
▁10.116.	-11.681
▁10.191.	-11.6811
▁10.222.	-11.6812
553/	-11.6814
345/	-11.6817
/10.71.	-11.6826
▁10.48.	-11.6827
789/	-11.6828
atch	-11.6838
/10.181.	-11.6842
562/	-11.6848
799/	-11.6849
361/	-11.685
546/	-11.6859
▁10.26.	-11.686
964/	-11.6865
▁10.184.	-11.6866
▁10.178.	-11.6867
▁10.196.	-11.6868
758/	-11.687
036/	-11.6873
474/	-11.6882
502/	-11.6885
963/	-11.6888
323/	-11.6915
062/	-11.6917
685/	-11.6918
935/	-11.6919
▁10.57.	-11.6923
▁10.73.	-11.6923
▁10.163.	-11.6923
▁10.172.	-11.6924
("10.158.1	-11.6924
▁10.242.	-11.6924
("10.7.1	-11.6935
/10.61.	-11.6937
766/	-11.6942
▁10.33.	-11.6948
56\"	-11.6953
643/	-11.6966
=\"16908424	-11.6967
▁10.28.	-11.697
007/	-11.6976
▁10.94.	-11.698
▁10.176.	-11.698
▁10.195.	-11.698
/10.94.	-11.6981
047/	-11.6986
518/	-11.6987
▁10.49.	-11.6992
724/	-11.7001
630/	-11.7002
699/	-11.7006
672/	-11.701
/10.93.	-11.7021
▁10.34.	-11.7021
312/	-11.703
=\"693	-11.7033
874/	-11.7034
URL	-11.7037
▁10.64.	-11.7037
▁10.71.	-11.7037
/10.142.	-11.704
,"127.0.0.1:443	-11.7042
3305	-11.7042
/10.216.	-11.7047
=\"16908425	-11.7052
070/	-11.7056
784/	-11.706
858/	-11.7063
374/	-11.7067
/10.248.	-11.7067
/10.64.	-11.7072
/10.84.	-11.7073
818/	-11.7077
561/	-11.7083
/10.190.	-11.709
/10.193.	-11.7093
833/	-11.7095
335/	-11.7095
▁10.104.	-11.7096
995/	-11.7096
▁10.240.	-11.7096
735/	-11.7105
841/	-11.7108
511/	-11.7115
076/	-11.7131
/10.189.	-11.7134
031/	-11.7144
/10.242.	-11.7146
004/	-11.7151
▁10.198.	-11.7154
/650	-11.7155
apac	-11.7159
443/	-11.7168
/10.118.	-11.7168
993/	-11.7172
572/	-11.718
355/	-11.7185
/10.34.	-11.7186
/10.238.	-11.7189
521/	-11.7194
039/	-11.7194
792/	-11.7194
790/	-11.7201
/10.91.	-11.7205
293/	-11.7211
▁10.157.	-11.7212
▁10.117.	-11.7212
09\"	-11.7222
/10.47.	-11.7224
_2=42	-11.7225
074/	-11.7225
▁10.46.	-11.7225
461/	-11.7226
996/	-11.7231
998/	-11.7241
_2=31	-11.725
729/	-11.7254
/10.39.	-11.7255
370/	-11.7258
/10.156.	-11.726
/10.221.	-11.7265
▁2182	-11.7269
▁10.118.	-11.7271
693/	-11.7273
077/	-11.7277
=\"987	-11.7277
740/	-11.728
591/	-11.729
/10.88.	-11.729
488/	-11.7296
/10.134.	-11.7297
/10.213.	-11.7298
▁10.25.	-11.7298
358/	-11.7301
/1379	-11.7317
985/	-11.7321
Error	-11.7329
▁10.69.	-11.733
▁10.55.	-11.733
/10.208.	-11.7332
▁10.244.	-11.7335
/10.100.	-11.7342
/10.122.	-11.7345
713/	-11.7351
802/	-11.7351
042/	-11.7356
/10.226.	-11.7362
413/	-11.7364
/10.222.	-11.737
051/	-11.7371
/10.96.	-11.7373
/10.230.	-11.7375
836/	-11.7378
/10.63.	-11.7382
781/	-11.7385
▁10.217.	-11.739
▁10.233.	-11.7391
▁10.220.	-11.7392
/10.101.	-11.7396
/10.209.	-11.7399
095/	-11.7399
012/	-11.74
673/	-11.7404
769/	-11.7406
/10.81.	-11.7413
382/	-11.7414
743/	-11.7414
_2=41	-11.7415
/10.41.	-11.7418
067/	-11.7418
/10.119.	-11.7428
315/	-11.743
680/	-11.7439
919/	-11.7439
=\"16908374	-11.744
=\"536	-11.7455
815/	-11.7462
/10.145.	-11.7464
747/	-11.7466
/10.115.	-11.7481
086/	-11.7487
/10.195.	-11.7487
332/	-11.7495
/10.151.	-11.7498
.109",	-11.75
008/	-11.7501
▁10.216.	-11.751
055/	-11.7515
/10.253.	-11.7515
/10.250.	-11.7515
▁not	-11.7517
824/	-11.7521
895/	-11.7521
=\"16908363	-11.7524
832/	-11.7526
/10.103.	-11.753
/10.73.	-11.7539
716/	-11.7539
715/	-11.754
912/	-11.7541
/10.58.	-11.7541
056/	-11.7559
894/	-11.7559
015/	-11.756
831/	-11.7563
=\"16908334	-11.7563
/10.162.	-11.7565
002/	-11.7566
088/	-11.7566
▁10.52.	-11.757
▁10.252.	-11.7571
044/	-11.7571
/10.79.	-11.7572
("10.20.1	-11.7573
/10.98.	-11.758
=\"986	-11.7588
/10.69.	-11.7601
/10.184.	-11.7604
/10.68.	-11.761
/10.105.	-11.7611
/10.171.	-11.7614
/10.54.	-11.7615
092/	-11.7617
/10.86.	-11.762
/10.123.	-11.7621
834/	-11.7622
/10.201.	-11.7623
/10.72.	-11.7627
3600	-11.7629
▁10.70.	-11.7631
▁10.159.	-11.7632
▁10.170.	-11.7633
282/	-11.7637
817/	-11.7642
082/	-11.7646
/10.59.	-11.7646
006/	-11.765
682/	-11.7651
/10.51.	-11.7652
/10.202.	-11.7652
939/	-11.7658
346/	-11.7659
411/	-11.7666
/10.240.	-11.7666
020/	-11.7666
035/	-11.7674
883/	-11.7676
773/	-11.7684
/10.126.	-11.7689
version	-11.7692
▁10.155.	-11.7695
820/	-11.7696
/10.203.	-11.7703
/10.160.	-11.7705
/10.141.	-11.7727
612/	-11.7728
/10.180.	-11.7728
040/	-11.7729
065/	-11.773
862/	-11.7735
965/	-11.7738
910/	-11.7739
/10.244.	-11.7745
783/	-11.7747
cleaner	-11.7754
/10.234.	-11.7754
heap	-11.7755
/10.219.	-11.776
/10.40.	-11.7764
837/	-11.7768
/10.116.	-11.7773
085/	-11.7787
/10.111.	-11.7792
058/	-11.7794
656/	-11.7807
011/	-11.7816
/10.182.	-11.7817
043/	-11.7821
578/	-11.7821
=\"675	-11.7826
942/	-11.7827
/10.32.	-11.7827
/10.192.	-11.7829
/10.179.	-11.783
/2841	-11.7838
▁"169083	-11.7842
/10.158.	-11.7842
/10.157.	-11.7847
772/	-11.7848
013/	-11.785
948/	-11.7851
/10.20.	-11.7851
021/	-11.7862
973/	-11.7864
/10.43.	-11.7865
530/	-11.787
/10.65.	-11.7876
651/	-11.7878
azure	-11.7878
=\"16908447	-11.7879
("10.56.1	-11.788
/10.104.	-11.7887
733/	-11.7891
▁10.12.	-11.7895
402/	-11.7895
/10.254.	-11.7898
/10.120.	-11.7919
/10.57.	-11.793
/10.92.	-11.7934
▁10.213.	-11.7942
▁10.223.	-11.7944
341/	-11.7946
▁ref	-11.7954
/10.139.	-11.7956
/10.243.	-11.7958
/10.231.	-11.7958
414/	-11.7959
/10.229.	-11.7959
034/	-11.7961
721/	-11.7966
=\"1216	-11.7966
830/	-11.7973
/10.175.	-11.7977
/10.246.	-11.798
/550	-11.7984
838/	-11.7985
050/	-11.7999
=\"715	-11.8
619/	-11.8006
/10.235.	-11.801
=\"264	-11.8014
852/	-11.8031
381/	-11.8031
/10.245.	-11.8032
/10.110.	-11.8034
=\"16908337	-11.8047
/10.33.	-11.805
534/	-11.8051
/640	-11.8051
,"127.0.0.1:22	-11.8053
033/	-11.8054
/10.255.	-11.8056
057/	-11.8057
814/	-11.8058
731/	-11.8061
936/	-11.8069
▁Cou	-11.8069
▁10.100.	-11.807
/10.188.	-11.8071
10002/	-11.8072
760/	-11.8073
/10.46.	-11.8087
/10.114.	-11.8087
/10.140.	-11.8095
090/	-11.8099
/10.205.	-11.8101
/10.83.	-11.8106
/10.164.	-11.8109
/10.90.	-11.8114
/10.153.	-11.8115
/1645	-11.8127
915/	-11.8131
/10.56.	-11.8133
▁10.183.	-11.8134
/0/127.0.0.1/443	-11.8141
827/	-11.8142
▁mnt	-11.8144
/10.102.	-11.8168
=\"16908373	-11.8175
/10.106.	-11.8193
/10.177.	-11.8195
/10.159.	-11.8199
/10.191.	-11.8204
▁10.41.	-11.8212
038/	-11.8214
('127.0.0.1','53	-11.8224
=\"16908400	-11.8224
=\"821	-11.8238
/10.4.	-11.824
▁2181	-11.8243
Inv	-11.8245
/10.133.	-11.8245
/10.249.	-11.8246
/10.187.	-11.8257
/10.50.	-11.8257
/10.232.	-11.8262
061/	-11.8265
("10.23.1	-11.8266
/10.220.	-11.8267
/2584	-11.8273
/10.237.	-11.8276
826/	-11.8278
/10.185.	-11.8294
/10.161.	-11.8306
813/	-11.8324
/10.112.	-11.8326
("10.206.1	-11.8328
736/	-11.8332
/2198	-11.8335
029/	-11.8341
/10.95.	-11.8351
/10.44.	-11.8356
014/	-11.8362
/10.207.	-11.8364
/10.53.	-11.8381
/10.251.	-11.8383
("10.87.1	-11.8394
/10.37.	-11.8414
/10.35.	-11.8423
711/	-11.8424
/10.78.	-11.8425
/10.107.	-11.8429
812/	-11.8437
/2420	-11.8437
=\"909	-11.8447
/10.55.	-11.8454
080/	-11.8459
("10.15.1	-11.846
("10.139.1	-11.8461
/10.138.	-11.8463
(("127.0.0.1",53	-11.8474
/10.155.	-11.8481
732/	-11.8509
/645	-11.8512
712/	-11.8515
083/	-11.8519
/10.113.	-11.854
52";	-11.8549
/10.211.	-11.8558
983/	-11.8588
▁kill	-11.8593
728/	-11.8593
Server	-11.8594
("10.80.1	-11.8595
/10.144.	-11.8599
/10.135.	-11.8602
/10.225.	-11.8622
719/	-11.8627
/10.125.	-11.8652
/10.36.	-11.8654
('127.0.0.1','44	-11.866
("10.237.1	-11.8661
("10.157.1	-11.8662
("10.25.1	-11.8664
645/	-11.8674
/10.247.	-11.8677
720/	-11.8683
/10.132.	-11.8684
/10.218.	-11.8698
/10.15.	-11.8706
Audit	-11.8729
660/	-11.8737
/10.198.	-11.8739
652/	-11.8747
752/	-11.877
onnection	-11.8774
030/	-11.8793
::---	-11.8797
=\"16908342	-11.88
/591	-11.8806
001/	-11.8834
/10.174.	-11.8852
/10.183.	-11.886
054/	-11.8864
triggers	-11.8866
("10.184.1	-11.8867
/10.199.	-11.8878
/10.19.	-11.8879
/3296	-11.8881
992/	-11.8892
/10.228.	-11.8905
/10.166.	-11.8912
("127.0.0.1","53	-11.8933
('127.0.0.1','22	-11.894
/10.206.	-11.894
914/	-11.8942
321/	-11.8973
=\"562	-11.8974
/1100	-11.8978
/10.25.	-11.8999
/3129	-11.9004
cluster	-11.9005
/10.149.	-11.9006
("10.177.1	-11.9009
/10.163.	-11.9026
/10.89.	-11.9029
738211	-11.9038
/1123	-11.9049
("10.17.1	-11.9059
946/	-11.9079
("10.24.1	-11.9079
=\"16908332	-11.9098
/10.60.	-11.9102
099/	-11.9126
/10.241.	-11.9132
=\"16908431	-11.9142
("10.92.1	-11.9149
("10.5.1	-11.9156
/10.131.	-11.9189
018/	-11.9207
("10.191.1	-11.9222
3597167	-11.9223
/10.9.	-11.9233
,"127.0.0.1:53	-11.9253
/10.128.	-11.9261
("10.183.1	-11.9296
/10.29.	-11.9301
/644	-11.9313
=\"16908381	-11.9348
("10.8.1	-11.9373
432/	-11.9399
127.0.0.1",80);`	-11.9429
("10.219.1	-11.9436
_1="10.86.	-11.945
_1="10.125.	-11.9459
127.0.0.1",8080)	-11.9473
/10.14.	-11.9477
▁"169082	-11.9493
cleanup	-11.9509
("10.207.1	-11.951
_1="10.165.	-11.9517
/3066	-11.9522
762/	-11.9558
/0/127.0.0.1/88	-11.9603
/10.143.	-11.9611
=\"853	-11.9653
/10.7.	-11.9664
_1="10.48.	-11.9667
/3643	-11.9711
("10.41.1	-11.9742
_1="10.234.	-11.9745
.47";	-11.9754
/10.52.	-11.9772
/655	-11.9803
_1="10.157.	-11.9817
_1="10.42.	-11.9819
_1="10.253.	-11.9825
/10.3.	-11.9831
=\"16908330	-11.9848
=\"1043	-11.9862
593\",	-11.9871
=\"110	-11.9874
_1="10.137.	-11.9896
_1="10.62.	-11.9896
_1="10.70.	-11.9901
/10.147.	-11.992
_1="10.80.	-11.9969
_1="10.75.	-11.997
Compliance	-12.0039
_1="10.105.	-12.0047
_1="10.172.	-12.0048
=\"737	-12.0119
:+	-12.0125
_1="10.63.	-12.0127
=\"16908369	-12.0135
/1928	-12.0141
script	-12.0159
/2651	-12.0163
/872	-12.0168
_1="10.237.	-12.021
_1="10.139.	-12.0211
_1="10.56.	-12.0215
("10.2.1	-12.0228
("127.0.0.1",51	-12.0241
sfuser	-12.0248
_1="10.101.	-12.0286
_1="10.198.	-12.0286
=\"2198	-12.029
_1="10.49.	-12.0335
("10.16.1	-12.0358
_1="10.190.	-12.0363
("10.19.1	-12.0367
_1="10.243.	-12.0367
_1="10.96.	-12.037
.170";	-12.0378
_1="10.121.	-12.0384
/1232	-12.0384
("10.11.1	-12.0401
/10.5.	-12.0409
.178";	-12.0429
restart	-12.0436
/10.26.	-12.0439
/3644	-12.0441
3911355	-12.0441
high	-12.0445
_1="10.219.	-12.0447
_1="10.134.	-12.0451
_1="10.138.	-12.0451
/3433	-12.047
/10.21.	-12.0491
/10.214.	-12.0504
("10.122.1	-12.0517
SUCCE	-12.0517
COM	-12.0522
_1="10.64.	-12.0526
_1="10.116.	-12.0527
("10.1.1	-12.0546
Connect	-12.0577
vault	-12.06
waagent	-12.0602
_1="10.90.	-12.0608
_1="10.161.	-12.0609
_1="10.109.	-12.0611
_1="10.38.	-12.0613
_1="10.36.	-12.0622
_1="10.126.	-12.0622
=\"16908358	-12.0625
/862	-12.0665
/3923	-12.0668
/1323	-12.0672
▁10.4	-12.0687
=\"1645	-12.0688
_1="10.94.	-12.0689
_1="10.51.	-12.0691
/1126	-12.0691
_1="10.40.	-12.0692
_1="10.205.	-12.0693
_1="10.207.	-12.0696
.117";	-12.0727
/3882	-12.0748
_1="10.31.	-12.0753
icrosoft	-12.0761
_1="10.159.	-12.0772
.90";	-12.0773
_1="10.192.	-12.0773
_1="10.81.	-12.0774
_1="10.217.	-12.0775
_1="10.117.	-12.0776
/3281	-12.0812
9995/	-12.0851
_1="10.95.	-12.0856
_1="10.146.	-12.0858
_1="10.112.	-12.0861
_1="10.30.	-12.0861
2648519	-12.0861
_1="10.108.	-12.0862
/608	-12.0889
Check	-12.0934
Kill	-12.0935
_1="10.176.	-12.0942
_1="10.187.	-12.0944
_1="10.247.	-12.0948
.72";	-12.0951
_1="10.232.	-12.0956
_1="10.245.	-12.096
.155";	-12.0964
_1="10.133.	-12.0974
_1="10.82.	-12.0978
/2324	-12.0981
/2809	-12.0994
("10.168.1	-12.0998
("10.47.1	-12.1007
/1704	-12.101
/2984	-12.1011
4038430	-12.1022
_1="10.169.	-12.1027
_1="10.57.	-12.1027
_1="10.47.	-12.1029
_1="10.60.	-12.1029
_1="10.106.	-12.1029
_1="10.107.	-12.1031
_1="10.52.	-12.1032
_1="10.142.	-12.1032
_1="10.91.	-12.1037
_1="10.32.	-12.104
_1="10.132.	-12.1041
.127";	-12.1041
_1="10.225.	-12.1045
=\"16908388	-12.1046
_1="10.249.	-12.1062
_1="10.233.	-12.1065
3524423	-12.1093
.230";	-12.1093
▁EndTime	-12.1106
4162102	-12.1106
Linux	-12.1106
/3342	-12.1111
_1="10.184.	-12.1113
_1="10.73.	-12.1114
=\"795	-12.1114
_1="10.175.	-12.1115
_1="10.67.	-12.1115
3.245	-12.1115
/2406	-12.1118
_1="10.85.	-12.1118
_1="10.214.	-12.112
_1="10.53.	-12.1121
_1="10.127.	-12.1128
=\"16908407	-12.1149
=\"16908434	-12.1187
_1="10.189.	-12.12
_1="10.195.	-12.1201
_1="10.160.	-12.1202
_1="10.197.	-12.1203
_1="10.163.	-12.1203
_1="10.113.	-12.1204
_1="10.100.	-12.1206
_1="10.35.	-12.1207
_1="10.191.	-12.1211
_1="10.145.	-12.1223
_1="10.122.	-12.1223
/647	-12.1245
/2645	-12.125
/574	-12.1262
Used	-12.128
.172";	-12.1281
▁"02"	-12.1283
yarn	-12.1284
_1="10.215.	-12.1291
_1="10.211.	-12.1291
_1="10.115.	-12.1291
_1="10.58.	-12.1292
_1="10.102.	-12.1293
_1="10.45.	-12.1303
/3346	-12.131
/3080	-12.1332
/1293	-12.1335
/2923	-12.1347
/10.17.	-12.1355
/3061	-12.136
stance	-12.1369
=\"13799	-12.1369
_1="10.173.	-12.1378
_1="10.254.	-12.138
_1="10.200.	-12.1381
_1="10.238.	-12.1388
_1="10.236.	-12.1394
_1="10.128.	-12.1399
/1409	-12.1409
/1118	-12.1419
.149";	-12.142
("10.53.1	-12.1421
=\"16908371	-12.1429
=\"591	-12.144
_1="10.131.	-12.1445
killer	-12.1458
("127.0.0.1","80	-12.1462
_1="10.194.	-12.1467
_1="10.246.	-12.1468
_1="10.143.	-12.1468
_1="10.68.	-12.1468
.168";	-12.1471
_1="10.103.	-12.1472
.100";	-12.1477
_1="10.124.	-12.1487
("10.226.1	-12.1495
=\"16908368	-12.1496
/3466	-12.1518
.202";	-12.1535
▁"16908	-12.1536
=\"742	-12.1547
_1="10.99.	-12.1556
_1="10.71.	-12.1556
_1="10.65.	-12.1558
_1="10.43.	-12.1558
_1="10.218.	-12.1562
_1="10.212.	-12.1566
_1="10.77.	-12.1568
_1="10.231.	-12.158
_1="10.182.	-12.159
=\"3515	-12.1608
/2304	-12.1615
/4090	-12.1628
/756	-12.1635
.37";	-12.1636
▁discovery	-12.1639
/7150/	-12.1641
/1401	-12.1645
.200";	-12.1647
_1="10.178.	-12.1649
/1116	-12.165
_1="10.72.	-12.1651
_1="10.104.	-12.1652
_1="10.37.	-12.1654
_1="10.79.	-12.1655
_1="10.201.	-12.1655
_1="10.129.	-12.166
("127.0.0.1",18	-12.1675
/1229	-12.1676
.130";	-12.1676
▁"03"	-12.1681
("127.0.0.1",7	-12.1705
("10.232.1	-12.1711
lation	-12.1731
_1="10.54.	-12.1741
_1="10.151.	-12.1741
.108";	-12.1743
/3858	-12.1746
▁org	-12.1749
/2943	-12.1752
Monitoring	-12.1753
("10.115.1	-12.1796
_1="10.44.	-12.1796
ransaction	-12.1824
sDpAzureResource	-12.1824
("127.0.0.1",42	-12.1829
inactive	-12.1829
_1="10.87.	-12.1833
_1="10.98.	-12.1834
_1="10.209.	-12.1835
_1="10.204.	-12.1837
_1="10.130.	-12.1839
_1="10.135.	-12.184
_1="10.202.	-12.1842
_1="10.177.	-12.1842
_1="10.170.	-12.1845
_1="10.241.	-12.1852
("10.217.1	-12.1854
_1="10.224.	-12.1859
("127.0.0.1",58	-12.1871
/3492	-12.1872
/1279	-12.1877
/1022	-12.1895
("10.30.1	-12.1895
/3595	-12.1919
_1="10.76.	-12.1926
_1="10.147.	-12.1927
_1="10.180.	-12.1928
_1="10.168.	-12.1928
/2610	-12.1931
_1="10.153.	-12.1932
_1="10.123.	-12.1946
/1700	-12.1953
("10.216.1	-12.1956
_1="10.149.	-12.197
.62";	-12.1991
.158";	-12.1999
/1721	-12.2005
_1="10.167.	-12.2022
_1="10.193.	-12.2023
_1="10.39.	-12.2025
_1="10.240.	-12.2026
_1="10.208.	-12.2026
.160";	-12.2042
/1849	-12.2043
_1="10.156.	-12.2048
.35";	-12.2048
2.254	-12.2049
("127.0.0.1",62	-12.2053
("10.144.1	-12.2066
/958	-12.2086
("10.65.1	-12.2093
("127.0.0.1",11	-12.2109
("127.0.0.1",8	-12.2115
_1="10.174.	-12.2116
_1="10.66.	-12.2118
_1="10.216.	-12.2119
_1="10.148.	-12.2121
("127.0.0.1",16	-12.2127
("127.0.0.1",54	-12.2138
("127.0.0.1",41	-12.2157
.59";	-12.2188
.212";	-12.219
/3383	-12.2198
("127.0.0.1",39	-12.2205
("10.31.2	-12.2206
/3700	-12.2206
("10.176.1	-12.2207
("10.50.1	-12.2211
3338561	-12.2212
_1="10.83.	-12.2214
_1="10.152.	-12.2215
key	-12.223
.210";	-12.2232
("10.239.1	-12.2243
_1="10.228.	-12.2245
8176\",	-12.2251
("127.0.0.1",46	-12.2255
("127.0.0.1",13	-12.226
/1130	-12.2261
/1129	-12.2271
19";$	-12.2272
("10.189.1	-12.2275
("10.215.1	-12.2286
=\"830	-12.2297
/8366/	-12.2301
/1173	-12.2306
_1="10.78.	-12.2308
_1="10.171.	-12.2312
_1="10.181.	-12.2312
_1="10.188.	-12.2313
_1="10.252.	-12.2317
("10.105.1	-12.2329
/1219	-12.2334
("127.0.0.1",63	-12.2341
_1="10.9.	-12.2359
("127.0.0.1",45	-12.237
("127.0.0.1",30	-12.237
("10.162.1	-12.2371
/1737	-12.2379
MONITOR	-12.2398
_1="10.61.	-12.241
("127.0.0.1",15	-12.2417
_1="10.230.	-12.2418
("10.11.2	-12.2438
/3607	-12.2439
5.66	-12.2466
=\"824	-12.247
/3601	-12.2475
("10.125.1	-12.2482
/3647	-12.2489
/2665	-12.2491
("127.0.0.1",17	-12.2496
2123272	-12.2509
/3573	-12.2517
_1="10.33.	-12.2521
("10.10.1	-12.2526
_1="10.155.	-12.2529
/2065	-12.2529
/3349	-12.2535
/2487	-12.2552
]	-12.2553
("127.0.0.1",48	-12.2566
_1="10.144.	-12.2574
/2960	-12.2586
.237";	-12.2595
("10.177.2	-12.2601
("10.25.2	-12.2602
("10.24.2	-12.2603
_1="10.59.	-12.2604
_1="10.46.	-12.2606
=\"11001	-12.2636
/1727	-12.2637
/3481	-12.2643
/1183	-12.2649
down	-12.2651
("127.0.0.1",20	-12.2675
/2640	-12.2691
▁10.3.1	-12.2691
/3934	-12.2697
("10.183.2	-12.27
942452	-12.2702
("10.22.2	-12.2703
_1="10.164.	-12.2712
/1340	-12.2731
("10.121.1	-12.2738
("10.111.1	-12.2738
127.0.0.1",8000)	-12.2766
("10.7.2	-12.2769
/1624	-12.2775
.67";	-12.2783
.239";	-12.2783
("127.0.0.1",60	-12.2795
/1139	-12.2798
.185";	-12.2807
_1="10.119.	-12.2812
_1="10.196.	-12.2818
_1="10.120.	-12.283
("127.0.0.1",56	-12.2835
("127.0.0.1",64	-12.2839
/3111	-12.2843
4.98	-12.2872
/3790	-12.2879
.186";	-12.2902
_1="10.114.	-12.2916
_1="10.186.	-12.2921
("127.0.0.1",61	-12.2933
/3820	-12.2952
/1360	-12.2953
("10.8.2	-12.2956
("127.0.0.1",25	-12.296
("10.18.2	-12.2974
.50";	-12.2994
/1868	-12.3003
plugin	-12.3007
class	-12.3008
/1954	-12.3011
/2973	-12.3015
_1="10.166.	-12.3016
4527\",	-12.3017
_1="10.227.	-12.3039
.167";	-12.3044
("127.0.0.1",57	-12.3061
/2834	-12.3063
("10.210.1	-12.3067
/1228	-12.307
("10.23.2	-12.3118
/3959	-12.3119
("127.0.0.1",29	-12.3126
8.57	-12.3126
("127.0.0.1",26	-12.3131
_1="10.250.	-12.3139
("127.0.0.1",21	-12.3141
("10.220.1	-12.3165
/10.212.1	-12.3207
.229";	-12.321
0.251	-12.3212
`	-12.3215
("10.150.1	-12.3223
_1="10.89.	-12.323
/3331	-12.3232
("127.0.0.1",28	-12.3249
8698\",	-12.3273
+	-12.8447
<	-14.1843
