<unk>	0
<s>	0
</s>	0
/	-2.81886
.	-3.32894
▁	-3.43452
▁/	-3.64015
_	-3.6612
▁-	-3.71344
c	-4.10482
bin	-4.1148
bash	-4.39889
(	-4.42562
s	-4.46795
proc	-4.47475
,	-4.67482
▁read	-4.67611
exe	-4.69404
socket	-4.71871
link	-4.73657
e	-4.77553
▁"	-4.81607
n	-4.82227
r	-4.84349
2	-4.87921
;	-4.90721
os	-4.94705
open	-5.06578
=	-5.08719
'	-5.12481
v	-5.14619
("	-5.14973
o	-5.20946
&	-5.21987
f	-5.28984
t	-5.31114
▁{	-5.31124
");	-5.33688
d	-5.40674
-	-5.40715
3	-5.42109
p	-5.44802
S	-5.47029
▁2>&3	-5.47254
i	-5.47279
}	-5.48301
",	-5.49288
memory	-5.50434
"	-5.55131
usage	-5.56377
▁'	-5.5665
usr	-5.57157
#	-5.57558
0	-5.58146
<&3	-5.60592
▁>&3	-5.61138
sh	-5.61457
\	-5.61885
▁in	-5.67862
("/	-5.75609
▁'$	-5.76008
sock	-5.76015
dash	-5.76392
)	-5.78798
▁awk	-5.79352
4	-5.79402
5	-5.80224
dev	-5.82361
exec	-5.83167
▁}	-5.86802
6	-5.89022
▁|	-5.89159
{	-5.90171
l	-5.90464
($	-5.91572
7	-5.93241
rss	-5.93349
("10.	-5.93893
exit	-5.94179
▁php	-5.9419
spawn	-5.94197
filen	-5.94206
import	-5.94223
dup	-5.94225
connect	-5.94231
▁while	-5.94248
Socket	-5.94249
(),	-5.94494
1	-5.95952
P	-5.98353
_2	-5.99734
8	-5.99849
w	-6.01365
u	-6.01882
9	-6.04368
stat	-6.04382
▁ossec	-6.06189
▁+	-6.09293
cpu	-6.09886
fd	-6.12757
pty	-6.13227
export	-6.14933
pid	-6.15482
new	-6.16503
geten	-6.16561
');	-6.17119
,:	-6.17354
▁H	-6.24341
);	-6.24411
EL	-6.25045
k	-6.26149
a	-6.2683
TYPE	-6.27163
ts	-6.27262
tcp	-6.28107
udp	-6.29078
")	-6.30852
:	-6.3278
T	-6.33808
>	-6.34225
in	-6.34452
":	-6.35237
printf	-6.37419
_2=	-6.41372
,"	-6.41478
g	-6.41981
>&	-6.42198
));	-6.42935
▁nc	-6.43714
python	-6.44316
cho	-6.44338
CP	-6.44441
host	-6.4475
▁ruby	-6.45249
m	-6.45278
INET	-6.45331
▁3<>	-6.45339
")'	-6.46158
▁for	-6.46281
_1,	-6.46284
();	-6.47065
▁if	-6.47546
_1	-6.47708
time	-6.49248
cmd	-6.50425
port	-6.51777
stime	-6.51886
x	-6.51943
b	-6.51992
$_	-6.54004
j	-6.54301
▁(	-6.54748
sys	-6.55535
z	-6.57412
h	-6.57952
y	-6.59001
▁os	-6.61058
("10.1	-6.6443
q	-6.64872
check	-6.68792
▁c	-6.69289
('	-6.69613
print	-6.70028
ossec	-6.70302
er	-6.75356
|	-6.75789
size	-6.7793
▁per	-6.7818
▁>	-6.79005
tmp	-6.79658
if	-6.79664
;'	-6.79829
2"))	-6.80802
[	-6.80911
out	-6.81463
io	-6.81567
!	-6.82484
IO	-6.82561
K	-6.84983
::	-6.85162
system	-6.85345
shell	-6.85585
▁do	-6.85766
,2)	-6.85774
require	-6.85822
];	-6.85826
STD	-6.85827
?	-6.8584
▁cl	-6.85855
OC	-6.85869
]=	-6.85874
STREAM	-6.85877
▁getline	-6.85882
0,1	-6.85884
▁0>&1	-6.85887
▁0<&3	-6.85925
inet	-6.8593
STDIN	-6.85933
[:	-6.86045
int	-6.86113
){	-6.86534
err	-6.86565
->	-6.86615
_1=	-6.86827
_2);	-6.87942
365	-6.88062
cgroup	-6.88262
_2,	-6.88305
▁sys	-6.90191
▁sh	-6.90494
127.0.0.1	-6.9138
ose	-6.91521
count	-6.92222
▁fd	-6.92726
▁pty	-6.92773
1")	-6.94497
($_	-6.94513
var	-6.94959
▁10.1	-6.96454
((	-6.96752
=\"169083	-7.00017
▁ga	-7.00149
uge	-7.00242
▁bytes	-7.00283
siphond	-7.01447
"$2"\	-7.01483
log	-7.04843
▁e	-7.06549
li	-7.06775
F	-7.07349
0\	-7.09755
=\"	-7.10885
monitor	-7.1372
;$	-7.14363
an	-7.15029
/10.	-7.15386
cores	-7.18909
▁mi	-7.19721
mode	-7.19965
"\"	-7.19978
hds	-7.19986
▁and	-7.19993
▁schedule	-7.19996
kernel	-7.2002
=\""$3"\",	-7.20026
=\""$2	-7.20026
▁mea	-7.20026
ured	-7.20028
▁cu	-7.20807
cd	-7.2161
);$	-7.21677
virtual	-7.21914
null	-7.21926
▁user	-7.22275
ip	-7.22301
collector	-7.22497
state	-7.2273
1;	-7.22887
▁io	-7.23074
39	-7.23673
35	-7.24571
38	-7.25132
▁printf	-7.26212
_"$1"	-7.26406
▁$	-7.27024
26	-7.27089
37	-7.28474
isd	-7.29868
alys	-7.29876
34	-7.30089
29	-7.30459
36	-7.30703
))	-7.31284
28	-7.31945
R	-7.3296
[0-9]+	-7.33166
total	-7.3318
40	-7.33502
▁1	-7.34766
M	-7.35753
27	-7.35843
0);	-7.36374
","	-7.36739
33	-7.37136
fs	-7.37333
/10.1	-7.37394
1);	-7.40243
▁10	-7.40593
80	-7.41074
eu	-7.41275
53	-7.41654
2);	-7.42224
mp	-7.42566
ER	-7.43241
Name	-7.44542
_1="10.	-7.44732
ch	-7.45909
use	-7.46338
64	-7.46455
)'	-7.47545
▁10.2	-7.47788
60	-7.48243
cat	-7.48629
30	-7.48754
~	-7.48847
59	-7.48928
put	-7.50021
dir	-7.50375
process	-7.50815
pro	-7.50942
11	-7.51389
sub	-7.51469
0)	-7.51611
▁>>	-7.51713
read	-7.51734
ork	-7.51829
cu	-7.51845
56	-7.52085
57	-7.5213
get	-7.52948
IN	-7.53111
>&3	-7.53212
res	-7.53253
▁rm	-7.5375
BE	-7.53855
user	-7.53991
▁$0	-7.54485
execut	-7.54547
tob	-7.54611
▁run	-7.54752
AF	-7.54841
loo	-7.54869
ato	-7.54895
pass	-7.54897
ray	-7.54909
▁ar	-7.54936
ddr	-7.54941
Dir	-7.55028
failed	-7.55044
hru	-7.55058
▁}}'	-7.55066
addr	-7.55093
OUT	-7.55161
ynam	-7.55175
▁done	-7.55178
▁lua	-7.55182
<>	-7.55186
(.+)	-7.55191
▁main	-7.55191
=="	-7.55194
▁2=>$	-7.55199
_1),$	-7.55199
▁1=>$	-7.55199
(0=>$	-7.55199
"}'	-7.55209
(3)	-7.55221
`;	-7.55345
))))	-7.55401
_1);$	-7.55433
($1)	-7.55466
cue	-7.5605
48	-7.56264
gets	-7.56366
#{	-7.56965
home	-7.57186
fn	-7.58187
49	-7.58448
▁}'	-7.58583
55	-7.58596
32	-7.58799
_1);	-7.58834
▁IO	-7.59079
:(	-7.59308
Pe	-7.5931
58	-7.59535
47	-7.59594
67	-7.60216
()	-7.60348
▁!	-7.60535
45	-7.60585
rA	-7.60688
▁rca	-7.60809
25	-7.60974
~/	-7.61727
▁print	-7.62167
44	-7.62598
54	-7.62665
www	-7.62858
89	-7.63764
65	-7.63884
pushg	-7.63904
46	-7.64948
_1="10.1	-7.65037
▁((	-7.65644
99	-7.65879
▁>&	-7.6659
79	-7.66796
90	-7.6728
77	-7.67304
63	-7.6745
98	-7.67667
78	-7.68353
66	-7.69071
21	-7.69179
87	-7.69677
69	-7.69705
85	-7.70015
76	-7.70212
68	-7.70245
97	-7.71046
70	-7.71474
75	-7.71631
88	-7.7175
50	-7.72194
43	-7.7239
84	-7.72924
nc	-7.73027
31	-7.73645
;(	-7.73772
lib	-7.73804
74	-7.74025
Application	-7.75133
93	-7.76923
94	-7.77793
95	-7.78391
ambari	-7.79009
51	-7.79451
73	-7.81272
62	-7.81607
83	-7.82453
▁v	-7.8323
52	-7.83779
Monitor	-7.84595
▁cmd	-7.85266
61	-7.85449
20	-7.85582
42	-7.8597
▁host	-7.86203
12	-7.86278
";	-7.86971
▁port	-7.87344
scripts	-7.87652
7\",	-7.88002
96	-7.89223
IPCore	-7.89374
19	-7.89923
▁=	-7.91062
▁dash	-7.91287
86	-7.91333
41	-7.91438
17	-7.92017
▁p	-7.92432
24	-7.92798
metric	-7.92847
send	-7.93088
92	-7.93789
15	-7.94449
18	-7.94654
HDI	-7.94888
Forest	-7.95227
geneva	-7.95241
▁8125	-7.95256
=\"169084	-7.95575
ClusterMetrics	-7.97837
Cluster	-7.98048
82	-7.98673
81	-8.0019
/10.2	-8.0037
nsight	-8.01444
Host	-8.01829
▁ed	-8.02969
23	-8.03549
13	-8.03779
1\",	-8.04758
71	-8.05325
72	-8.06565
▁siphond	-8.0811
04	-8.09458
wn	-8.10526
10-	-8.12135
16	-8.13271
06	-8.15333
14	-8.15386
Spark	-8.15503
CDP	-8.15867
03	-8.1609
:/	-8.18427
01",	-8.19543
10	-8.1969
=\"1	-8.20154
00	-8.2078
('/	-8.21905
=\"6	-8.25092
08	-8.26482
_1="10.2	-8.27144
3\",	-8.27281
auditbeat	-8.29578
91	-8.29793
9\",	-8.30604
02	-8.30754
09	-8.31158
8000	-8.31174
4\",	-8.31458
▁mdsd	-8.31625
▁"$2	-8.31734
3"\	-8.31819
/<	-8.32614
9001	-8.34511
8\",	-8.34702
2\",	-8.34841
C	-8.35527
from	-8.36138
5\",	-8.38384
07	-8.38622
▁22	-8.39664
05	-8.407
8888	-8.41192
E	-8.41567
01	-8.41828
AR	-8.42147
▁sub	-8.43977
▁process	-8.44093
0\",	-8.44219
'\	-8.45825
▁443	-8.46369
▁53	-8.488
6\",	-8.48886
▁80	-8.53871
▁8888	-8.54398
▁8000	-8.54403
A	-8.54559
sp	-8.54751
▁8080	-8.54916
▁9001	-8.55588
,"10.	-8.5587
/0/10.	-8.56664
('10.	-8.59432
service	-8.60299
/22	-8.60881
D	-8.62973
▁:	-8.63311
_1="127.0.0.1";	-8.64602
rage	-8.6897
▁Av	-8.69385
('10.1	-8.72222
nam	-8.73507
▁$15}	-8.73898
▁$14	-8.74038
▁$16	-8.74406
▁$17	-8.74598
=\"1690839	-8.74631
/0/10.1	-8.74752
fluentd	-8.7515
under	-8.77908
supervisor	-8.77938
,"10.1	-8.7852
=\"8	-8.78579
▁grep	-8.78736
▁2>&1	-8.79609
",8888);	-8.80948
169	-8.81706
200	-8.82823
8080	-8.83617
",9001);	-8.84983
scraper	-8.85142
net	-8.85785
250	-8.85788
=\"1690844	-8.86542
=\"9	-8.8671
);`/	-8.86856
100	-8.87329
eur	-8.88029
",443);	-8.89018
254	-8.89996
",8000);	-8.90371
>/	-8.90588
",8080);	-8.90612
",22);	-8.90833
Mem	-8.90913
255	-8.91063
local	-8.92593
",80);	-8.93511
",53);	-8.94092
252	-8.94293
Time	-8.94944
=\"10	-8.95362
mdsd	-8.95402
azsecd	-8.96197
253	-8.9655
3\"	-8.97835
251	-8.98446
/53	-8.99247
disk	-8.9991
1\"	-9.00107
Device	-9.00322
_2=9001;	-9.0043
107	-9.01193
_2=80;	-9.01286
_2=443;	-9.01391
_2=8888;	-9.01579
_2=8080;	-9.01616
129	-9.0209
_2=8000;	-9.02216
ps	-9.02384
_2=22;	-9.0259
/10	-9.02931
_2=53;	-9.03239
118	-9.03454
109	-9.03813
209	-9.04036
2";	-9.05258
2\"	-9.05564
/443	-9.06702
5\"	-9.0737
4\"	-9.08042
208	-9.08356
/80	-9.08564
=\"1690834	-9.08756
106	-9.08825
$	-9.08844
=\"7	-9.08976
105	-9.09074
246	-9.09284
207	-9.09574
248	-9.09893
3";	-9.10276
168	-9.10446
9\"	-9.10546
=\"1690843	-9.11172
app	-9.11242
170	-9.11557
ipcdp	-9.11772
8\"	-9.11869
108	-9.12201
238	-9.12278
7\"	-9.12369
110	-9.12472
166	-9.12818
237	-9.13114
103	-9.13416
50.	-9.13706
140	-9.14025
41.	-9.14841
206	-9.15014
228	-9.15304
249	-9.15528
205	-9.16108
167	-9.16117
195	-9.16923
219	-9.17001
247	-9.17086
164	-9.17635
6\"	-9.17857
240	-9.17861
115	-9.18019
=\"1690842	-9.18185
230	-9.18203
134	-9.1839
104	-9.18559
147	-9.18727
137	-9.19045
126	-9.19066
148	-9.1914
245	-9.19723
189	-9.19846
5";	-9.20025
136	-9.2004
156	-9.20133
hn	-9.20145
218	-9.20191
188	-9.20375
194	-9.20401
128	-9.20505
165	-9.20756
127	-9.20842
143	-9.20986
198	-9.21046
179	-9.21098
244	-9.21286
187	-9.21302
117	-9.21871
190	-9.22108
130	-9.22231
226	-9.22447
119	-9.2304
7";	-9.23143
114	-9.23183
236	-9.23222
232	-9.24086
204	-9.2414
229	-9.24257
243	-9.24392
160	-9.24397
239	-9.24578
193	-9.24826
159	-9.24857
199	-9.25132
02",	-9.25165
149	-9.2521
186	-9.25237
116	-9.25293
8";	-9.25975
▁auditbeat	-9.2609
158	-9.26206
227	-9.2682
9";	-9.26836
177	-9.27104
154	-9.27213
139	-9.27315
178	-9.27387
125	-9.27412
▁Percent	-9.27557
122	-9.27628
150	-9.27668
91.	-9.27732
231	-9.27857
144	-9.27941
6";	-9.28289
ppe	-9.28372
176	-9.28924
146	-9.28992
235	-9.29221
145	-9.29523
217	-9.29701
184	-9.2972
'"'"'	-9.29799
cpl	-9.29812
▁10.3	-9.30046
172	-9.30252
0";	-9.30351
123	-9.30793
,"10.2	-9.30844
86.	-9.30954
138	-9.30967
wu	-9.3109
197	-9.31238
234	-9.31285
('10.2	-9.31308
120	-9.31532
196	-9.31596
157	-9.31822
/0/10.2	-9.32027
210	-9.32149
113	-9.32327
,"127.0.0.1:	-9.32338
185	-9.32423
216	-9.32761
225	-9.32831
180	-9.33032
203	-9.33198
222	-9.33295
nal	-9.33381
1";	-9.3342
4";	-9.33932
ob	-9.3401
DataInsights	-9.34198
155	-9.34266
("127.0.0.1","	-9.3441
214	-9.34433
220	-9.34581
233	-9.34631
96.	-9.34694
loud	-9.34925
124	-9.35154
175	-9.35538
242	-9.35607
173	-9.35672
215	-9.35691
('127.0.0.1','	-9.3637
inter	-9.36536
174	-9.37
ag	-9.37047
133	-9.37175
_1="127.0.0.1";$	-9.37508
163	-9.38026
224	-9.3809
▁azsec	-9.38367
181	-9.38891
▁sec	-9.3925
B	-9.39305
135	-9.39644
Id	-9.39999
131	-9.40963
171	-9.40983
/0/127.0.0.1/	-9.41131
I	-9.4168
183	-9.42379
/8080;	-9.42403
161	-9.42451
201	-9.42454
151	-9.42746
O	-9.42886
153	-9.42976
omi	-9.43727
/8000;	-9.44385
/80;	-9.44424
80";	-9.44453
/443;	-9.44527
102	-9.45014
U	-9.45047
UsedMemory	-9.45679
);`	-9.46121
142	-9.46138
400	-9.48544
▁2>	-9.49749
','80	-9.50529
241	-9.5055
162	-9.51271
191	-9.51878
223	-9.52032
132	-9.5276
L	-9.55056
US	-9.56407
141	-9.57383
",8080))	-9.58211
5.21	-9.58229
",9001))	-9.58326
ames	-9.58805
9.21	-9.58874
2.21	-9.59401
",8000))	-9.5952
5.18	-9.60168
8.21	-9.60363
",53))	-9.60404
http	-9.60542
5.11	-9.60592
1.21	-9.60868
5.15	-9.60872
/8888;	-9.60925
audit	-9.61216
0.21	-9.61225
101	-9.61407
",443))	-9.6142
",22))	-9.61537
",80))	-9.62459
258	-9.62482
",8888))	-9.62647
/22;	-9.62753
4.21	-9.62913
01-	-9.62925
current	-9.63131
/53;	-9.63168
3.21	-9.63399
8.19	-9.63403
ipcdpnam	-9.63433
7.11	-9.6364
4.11	-9.63641
4.22	-9.64033
/9001;	-9.64036
7.21	-9.64869
3.22	-9.65044
5.22	-9.65161
3.11	-9.65166
ipdi	-9.65335
2.22	-9.66011
1.22	-9.66041
2.19	-9.66705
3.15	-9.67107
9.22	-9.67159
Status	-9.67289
7.19	-9.67831
2.11	-9.67866
▁Ip	-9.68319
3.12	-9.68355
4.20	-9.68561
0.22	-9.6866
7.22	-9.69051
8.11	-9.69191
3.20	-9.69253
2.18	-9.69399
0.18	-9.69411
5.13	-9.69606
4.15	-9.69763
3.23	-9.69787
0.11	-9.69828
5.19	-9.6997
6.21	-9.70041
3.19	-9.70047
0.15	-9.70207
2.16	-9.70427
8.22	-9.70631
2.13	-9.70643
opt	-9.70697
2.23	-9.70792
0.12	-9.709
6.22	-9.70974
8.18	-9.71006
5.12	-9.7111
5.10	-9.71212
3.16	-9.71296
7.17	-9.71504
7.24	-9.71594
0.14	-9.71601
3.18	-9.71625
8.14	-9.71722
2.12	-9.7175
N	-9.71792
2.20	-9.71824
2.14	-9.72141
2.17	-9.72511
4.23	-9.7253
9.11	-9.72575
7.12	-9.72739
7.15	-9.72916
8.12	-9.72935
3.14	-9.73015
5.17	-9.7303
0.20	-9.7321
3.17	-9.73296
7.18	-9.73339
306	-9.7362
0.19	-9.73685
308	-9.73723
8.15	-9.74126
7.14	-9.74268
6.12	-9.74275
1.20	-9.74293
7.20	-9.74536
CL	-9.74553
1.11	-9.74578
8080")	-9.74612
1.12	-9.74675
1.15	-9.74784
2.15	-9.74798
2.24	-9.74998
3.24	-9.75041
7.16	-9.75119
9.20	-9.75227
5.23	-9.75555
9.12	-9.75803
409	-9.75925
0.10	-9.75991
6.13	-9.76008
1.10	-9.76136
5.14	-9.76452
0.13	-9.76461
8.23	-9.76474
4.19	-9.76488
8.13	-9.76502
4.13	-9.76542
2.10	-9.76644
1.13	-9.76657
8.17	-9.76845
1.18	-9.76919
9.19	-9.76971
1.19	-9.76975
6.19	-9.77039
3.13	-9.77172
6.14	-9.77199
1.24	-9.77541
1.23	-9.77601
5.16	-9.77628
0.16	-9.77877
44.1	-9.77994
0.17	-9.78032
49.1	-9.78186
4.12	-9.78209
(("127.0.0.1",	-9.78239
4.18	-9.78293
5.20	-9.78409
5.24	-9.78497
4.16	-9.79277
7.10	-9.79507
8.16	-9.7965
305	-9.79856
3.10	-9.7987
4.24	-9.79975
7.13	-9.79991
9.24	-9.80097
9.18	-9.80137
6.20	-9.80155
6.15	-9.80164
6.11	-9.80688
8.20	-9.80983
9.23	-9.81049
1.17	-9.8126
4.17	-9.8146
9.15	-9.81878
8.24	-9.82513
0.24	-9.82622
1.16	-9.82899
6.23	-9.82968
4.10	-9.83054
6.10	-9.8339
4.14	-9.8365
6.17	-9.83659
7.23	-9.83683
8.10	-9.84132
1.14	-9.84423
0.23	-9.84832
9.17	-9.84931
Process	-9.84955
6.18	-9.85285
9.16	-9.853
6.24	-9.85323
("127.0.0.1",443	-9.85865
H	-9.85894
6.16	-9.86721
9.14	-9.87069
9.13	-9.87145
0-9	-9.87341
+,./:_-	-9.87652
9.10	-9.88326
300	-9.89142
sudo	-9.90155
31.1	-9.91058
("127.0.0.1",53)	-9.93364
443")	-9.94137
azsec	-9.97599
0-9]	-9.97763
("127.0.0.1",22)	-9.98136
OM	-9.98462
("127.0.0.1",80)	-9.9875
Usage	-9.99934
4";$	-10.0063
82.1	-10.0137
oozie	-10.0154
-16"	-10.0176
8-0	-10.0271
Y	-10.286
+	-11.6756
]	-12.3061
`	-12.3357
<	-14.2293
