<unk>	0
<s>	0
</s>	0
/	-3.02326
▁	-3.2999
.	-3.4971
▁/	-3.72979
▁-	-3.80771
_	-3.81204
c	-3.84245
bin	-4.20916
r	-4.30911
(	-4.37206
bash	-4.46727
k	-4.51254
proc	-4.55844
s	-4.57764
;	-4.65188
e	-4.67515
exe	-4.71423
,	-4.73403
▁read	-4.74786
p	-4.77942
os	-4.79642
lin	-4.80878
socket	-4.82092
2	-4.90571
▁"	-4.93877
n	-5.04696
f	-5.06066
port	-5.09207
open	-5.13719
'	-5.21936
=	-5.24646
"	-5.24741
:	-5.2579
i	-5.26444
("	-5.29513
&	-5.32822
-	-5.33589
t	-5.35978
▁{	-5.40686
P	-5.42349
\	-5.42932
d	-5.43972
");	-5.44679
3	-5.53877
",	-5.55749
#	-5.56344
▁2>&3	-5.57278
memory	-5.58924
sh	-5.63053
us	-5.66606
▁'	-5.68842
<&3	-5.70361
usage	-5.70797
▁>&3	-5.70956
▁}	-5.71993
S	-5.72949
sec	-5.76187
($	-5.77243
▁os	-5.77793
{	-5.77937
v	-5.7943
▁in	-5.80856
fd	-5.83629
du	-5.84304
▁a	-5.85638
dev	-5.86066
▁'$	-5.86567
("/	-5.86897
pu	-5.86954
)	-5.8716
wk	-5.87202
sock	-5.87634
no	-5.87883
print	-5.90083
stat	-5.90363
dash	-5.90394
▁|	-5.90658
}	-5.92916
exit	-5.93504
▁while	-5.93839
8	-5.93866
7	-5.96395
exec	-5.96683
ts	-5.9785
_2	-5.97866
a	-5.98845
rss	-5.98982
5	-5.99158
sp	-6.00617
[	-6.00817
file	-6.02282
4	-6.02593
get	-6.02708
Socket	-6.03197
onnect	-6.03571
(),	-6.03985
9	-6.04743
im	-6.0496
ph	-6.05713
l	-6.05948
awn	-6.0742
_1	-6.09725
1	-6.09795
0	-6.11096
T	-6.13951
sys	-6.14356
w	-6.14569
o	-6.2138
pty	-6.2289
6	-6.23355
re	-6.24173
new	-6.25554
env	-6.26196
E	-6.2799
u	-6.28364
▁+	-6.28851
pid	-6.29024
');	-6.30041
);	-6.30228
]	-6.30945
tcp	-6.32973
udp	-6.35013
>	-6.36325
,:	-6.38119
EL	-6.38302
▁H	-6.3862
Y	-6.39351
"}	-6.40467
▁T	-6.43382
▁do	-6.43741
F	-6.45378
▁if	-6.4683
▁3<>	-6.4766
▁nc	-6.48288
;'	-6.48892
_1,	-6.49572
>&	-6.49991
in	-6.50179
,"	-6.50803
INET	-6.51787
by	-6.52431
mp	-6.52818
▁for	-6.5293
_2=	-6.53458
python	-6.54214
_1=	-6.54286
er	-6.54753
")'	-6.55768
CP	-6.56469
));	-6.56927
▁ru	-6.56986
cho	-6.57035
cmd	-6.57925
();	-6.58368
")	-6.59715
A	-6.60847
m	-6.61542
si	-6.62376
host	-6.62577
al	-6.65946
time	-6.66365
g	-6.67493
=\""$	-6.6772
((	-6.68177
stime	-6.68771
+	-6.69029
C	-6.69305
q	-6.70789
th	-6.71125
y	-6.73571
|	-6.73976
▁print	-6.76084
cu	-6.79699
('	-6.79967
!	-6.80818
▁per	-6.81751
16	-6.81854
IO	-6.82501
if	-6.84302
?	-6.84586
cgroup	-6.84587
$_	-6.84973
ze	-6.85147
▁getline	-6.85427
=\"	-6.85506
){	-6.85713
ex	-6.85877
▁cl	-6.86009
~	-6.86273
ame	-6.86551
"\	-6.87626
}'	-6.87656
_2);	-6.8766
::	-6.88471
check	-6.88852
▁"$2	-6.88853
z	-6.88973
inet	-6.89787
_2,	-6.90325
io	-6.90355
x	-6.90398
int	-6.90438
▁>	-6.90484
j	-6.90567
▁0<&3	-6.90638
STDIN	-6.91117
ip	-6.91292
cat	-6.92212
va	-6.92585
siphond	-6.93764
K	-6.93778
STD	-6.94179
SO	-6.94674
STREAM	-6.94698
,1	-6.94708
system	-6.95612
b	-6.95619
,2)	-6.95953
365	-6.96471
▁$	-6.96786
$_=	-6.96861
▁ex	-6.96893
sd	-6.97007
2"))	-6.97161
\",	-6.97381
▁0>&1	-6.97498
20	-6.9808
qu	-6.98214
▁c	-6.99479
▁sh	-6.99863
shell	-7.00387
▁g	-7.01529
out	-7.01866
▁pty	-7.03058
(0	-7.03394
ge	-7.03875
14	-7.049
au	-7.05397
=>	-7.0594
h	-7.06503
53	-7.06625
err	-7.06813
count	-7.07475
bytes	-7.10678
pa	-7.10973
1")	-7.11273
44	-7.11431
10	-7.11436
80	-7.11803
3"\	-7.12208
15	-7.1433
eu	-7.15668
▁(	-7.15901
li	-7.1846
11	-7.19465
40	-7.20037
);$	-7.20067
0\	-7.20447
log	-7.23494
cd	-7.23654
50	-7.2366
▁io	-7.2678
30	-7.27745
null	-7.27778
25	-7.28698
lo	-7.28749
51	-7.28767
`	-7.28778
sub	-7.29081
process	-7.29086
to	-7.29563
monitor	-7.29726
43	-7.29842
";	-7.3034
nal	-7.31788
▁e	-7.31789
24	-7.3181
ds	-7.31933
))	-7.32462
/1	-7.32865
ern	-7.33443
and	-7.34578
127.0.0.1	-7.34865
el	-7.35195
▁1	-7.3566
0-9]	-7.35821
tor	-7.36014
mode	-7.36509
sure	-7.36517
lle	-7.37222
sche	-7.37223
led	-7.37328
▁me	-7.37356
17	-7.37503
▁mi	-7.37687
cores	-7.37702
▁10.	-7.37847
co	-7.38298
▁user	-7.38757
59	-7.39487
23	-7.40047
_"$1"	-7.40081
ch	-7.42074
tu	-7.42297
R	-7.42713
▁cu	-7.42989
M	-7.43029
90	-7.43781
op	-7.44319
for	-7.45491
","	-7.4594
2);	-7.46141
75	-7.46993
vi	-7.47119
ru	-7.47264
▁10.1	-7.47661
($_	-7.47661
12	-7.48066
35	-7.48071
46	-7.48123
3)	-7.48315
fs	-7.48803
ne	-7.49607
26	-7.49925
1);	-7.50045
19	-7.5033
read	-7.50363
ww	-7.50444
9.	-7.50534
98	-7.51032
dir	-7.51712
0)	-7.51724
0);	-7.51837
scr	-7.52267
on	-7.52935
68	-7.53124
failed	-7.53278
Dir	-7.53279
at	-7.53639
1))	-7.5379
/10.1	-7.54074
BE	-7.54125
▁$0	-7.54503
ay	-7.54667
IN	-7.54813
;$	-7.54995
tob	-7.55172
_1),$	-7.55799
▁2=>$	-7.55799
(0=>$	-7.55799
▁1=>$	-7.55799
▁m	-7.55888
6.1	-7.56076
pro	-7.56281
N	-7.56696
="	-7.56698
45	-7.56702
ER	-7.56876
65	-7.5695
1.	-7.56952
ddr	-7.57249
21	-7.57422
<>	-7.57569
78	-7.57601
13	-7.57628
_1);$	-7.57871
res	-7.57952
64	-7.57997
_1);	-7.58139
76	-7.58487
gets	-7.58502
28	-7.58725
36	-7.59516
3.1	-7.59994
7.1	-7.60096
▁!	-7.60327
93	-7.60904
use	-7.61127
yn	-7.61703
94	-7.62227
▁IO	-7.62899
OU	-7.62922
97	-7.63052
addr	-7.63207
▁ar	-7.63353
74	-7.63454
/10.	-7.63481
))))	-7.63727
66	-7.63749
>&3	-7.64988
ss	-7.65895
Pe	-7.65912
4.	-7.66399
_1="10.	-7.66513
58	-7.66602
33	-7.66802
42	-7.67031
77	-7.6708
61	-7.67348
41	-7.6743
▁((	-7.67503
gw	-7.67624
ua	-7.68713
29	-7.68968
"))	-7.6904
0.1	-7.69227
cut	-7.69321
▁>>	-7.69868
rm	-7.70327
▁l	-7.7062
38	-7.7079
47	-7.71311
ys	-7.72143
70	-7.72208
48	-7.72457
▁>&	-7.73712
89	-7.73996
ain	-7.74287
55	-7.74326
▁run	-7.74551
63	-7.74817
37	-7.74937
88	-7.75153
62	-7.75186
20"	-7.76988
57	-7.77488
22	-7.78522
;(	-7.78784
ri	-7.7921
()	-7.79563
95	-7.79572
("127.0.0.1",	-7.79667
lib	-7.80991
ba	-7.81033
56	-7.8176
fn	-7.82147
=\"169083	-7.82485
H	-7.8269
am	-7.83947
60	-7.84155
','	-7.85343
79	-7.85539
87	-7.86061
auditbeat	-7.86428
▁I	-7.87122
82	-7.87185
7.	-7.88823
86	-7.89261
▁v	-7.89277
31	-7.89278
Monitor	-7.89958
▁=	-7.90101
hom	-7.90264
nc	-7.90485
user	-7.90634
34	-7.92444
91	-7.92936
up	-7.9373
32	-7.95158
67	-7.96022
01	-7.96443
se	-7.97274
Application	-7.97415
Core	-7.97416
69	-7.97745
02	-7.98104
.10	-7.986
nd	-7.99808
71	-7.99808
etric	-8.00029
8125	-8.00234
49	-8.00404
ores	-8.00861
05	-8.01084
81	-8.02225
▁dash	-8.02461
96	-8.03472
eva	-8.04682
gen	-8.04957
_1="10.1	-8.05205
Cluster	-8.05473
52	-8.05815
▁cmd	-8.07914
HDI	-8.08393
85	-8.08999
("10.1	-8.10198
nsight	-8.11229
▁host	-8.11279
md	-8.1203
08	-8.13332
.18	-8.14302
,"10.	-8.14412
18	-8.1463
("10.	-8.14657
/0/10.	-8.16249
01",	-8.16301
▁10.2	-8.16649
ed	-8.16797
3.2	-8.17794
DP	-8.20855
00	-8.21638
wn	-8.21721
10-	-8.21996
rkClusterMetrics	-8.2218
▁C	-8.22743
1\",	-8.23534
92	-8.23771
72	-8.24434
ost	-8.25097
age	-8.26036
99	-8.28124
8080	-8.28572
83	-8.29822
04	-8.29908
7\",	-8.32058
/28	-8.32127
)'	-8.33881
8.2	-8.37006
/34	-8.37933
=\"1	-8.38198
/33	-8.39044
/38	-8.4023
("10.2	-8.40751
/32	-8.40997
/19	-8.4165
▁8000	-8.42265
('/	-8.44125
/39	-8.45704
ver	-8.46539
AR	-8.46754
rom	-8.48513
/10.2	-8.48521
un	-8.48992
2.2	-8.49439
<	-8.50495
▁22	-8.50777
sor	-8.50807
▁8888	-8.51469
der	-8.51727
ervi	-8.51895
3\",	-8.53264
D	-8.54579
9001	-8.55062
=\"6	-8.55262
▁443	-8.55321
",8080);	-8.56667
service	-8.57492
▁8080	-8.57634
/17	-8.5921
ape	-8.59349
0.2	-8.61772
/31	-8.62682
/35	-8.64032
209	-8.6459
54.	-8.64915
9\",	-8.67346
/29	-8.67813
▁53	-8.69374
/0/10.1	-8.72159
8888	-8.74738
('10.1	-8.74899
",80);	-8.75112
azsec	-8.75545
);`/	-8.76961
/37	-8.78273
▁$17	-8.7872
$	-8.79102
",443);	-8.79736
local	-8.81301
=\"1690832	-8.81947
=\"1690841	-8.84315
_2=8000;	-8.84322
/22	-8.84745
('10.	-8.85169
/10	-8.86282
_1="127.0.0.1";	-8.87426
4\",	-8.88187
132	-8.89285
nam	-8.89925
=\"7	-8.90077
wu	-8.90355
200	-8.90556
218	-8.91668
8\",	-8.92536
▁80	-8.92556
vice	-8.92907
("10.16	-8.93218
39/	-8.94021
55.	-8.94418
ap	-8.94767
",22);	-8.95548
("10.23	-8.96356
▁dis	-8.97454
206	-8.98004
",9001);	-8.98169
("10.20	-8.9828
104	-8.98478
73/	-8.99457
▁9001	-8.99652
("10.17	-9.00824
▁2>&1	-9.0102
_2=8080;	-9.01029
flu	-9.01042
",8888);	-9.01284
/21	-9.01834
248	-9.01987
47/	-9.02086
125	-9.02312
5\",	-9.0244
85.	-9.0244
pl	-9.02746
("10.12	-9.03018
",53);	-9.0323
>/	-9.0391
U	-9.04467
205	-9.04566
=\"1690843	-9.04722
ipcdp	-9.04725
Mem	-9.04729
_2=443;	-9.04731
_2=22;	-9.04732
,"10.1	-9.04876
41/	-9.05401
jo	-9.05429
=\"1690831	-9.07044
/23	-9.07966
188	-9.08334
=\"1690842	-9.08568
123	-9.1032
42/	-9.10537
134	-9.12078
186	-9.12726
247	-9.13931
=\"1690835	-9.14053
14/	-9.14232
/22;	-9.14788
zl	-9.14802
158	-9.14909
249	-9.15769
("10.24	-9.15816
106	-9.16465
=\"1690844	-9.16735
_2=9001;	-9.16743
/443	-9.16863
207	-9.16925
ent	-9.1701
229	-9.17515
",8000);	-9.18478
130	-9.18528
("10.10	-9.18924
yf	-9.19801
("10.8	-9.20031
245	-9.20863
=\"1690840	-9.21083
228	-9.21142
27/	-9.21496
("10.4	-9.21644
208	-9.21751
03/	-9.21852
96/	-9.22673
126	-9.23052
146	-9.23072
("10.21	-9.23131
164	-9.23849
gm	-9.2392
60/	-9.25508
184	-9.25638
("10.7	-9.25688
112	-9.26078
3\"	-9.26301
31/	-9.26326
'"'"'	-9.26531
("10.13	-9.26783
170	-9.26807
169	-9.27172
241	-9.27173
57/	-9.27314
37/	-9.27336
136	-9.28104
xl	-9.28154
00/	-9.28851
221	-9.29195
▁10.13	-9.29258
.100	-9.29437
86/	-9.30052
154	-9.30113
95/	-9.30225
_2=53;	-9.30412
02",	-9.30415
21/	-9.30643
/8888	-9.31302
("10.15	-9.31538
49/	-9.32063
ppe	-9.32565
jq	-9.3285
▁10.9	-9.33584
131	-9.33671
4\"	-9.33945
255	-9.34012
22/	-9.34267
cg	-9.34406
▁Percent	-9.35423
("10.11	-9.35532
72/	-9.35776
("10.18	-9.3628
07/	-9.36357
18/	-9.36665
$15	-9.37031
/8000;	-9.37211
83/	-9.37339
/8080;	-9.3748
/8000	-9.37491
xn	-9.37843
("10.9	-9.37877
56/	-9.38053
4.17	-9.38114
366	-9.38174
85/	-9.3967
11-	-9.39777
_2=5	-9.40335
,"127.0.0.1:	-9.4066
_1="127.0.0.1";$	-9.40695
wd	-9.41289
212	-9.41526
227	-9.41692
/8888;	-9.41868
("10.6	-9.41883
127	-9.4192
443")	-9.41976
363	-9.42052
=\"1690833	-9.42235
gg	-9.42585
133	-9.42614
71/	-9.43323
ud	-9.43658
zo	-9.43676
net	-9.43791
8-	-9.43838
app	-9.44328
.121	-9.44581
09/	-9.44811
204	-9.44875
▁'"'"'	-9.4511
183	-9.45236
81/	-9.45615
108	-9.46047
omi	-9.46228
_2=80;	-9.46229
UsedMemory	-9.46246
192	-9.46288
0"	-9.46519
38/	-9.46742
,22))	-9.46895
99/	-9.47151
=\"1690836	-9.47173
52/	-9.47488
45.1	-9.47733
8.16	-9.48483
261	-9.48769
225	-9.49818
409	-9.51308
("10.19	-9.51555
8000")	-9.52154
eb	-9.52235
nb	-9.52279
7";$	-9.5248
149	-9.52809
54/	-9.52926
hn	-9.53325
I	-9.53816
bj	-9.54672
49.1	-9.54727
01-	-9.54909
.239	-9.54941
.92	-9.55492
84/	-9.55617
0.13	-9.57205
L	-9.58153
('127.0.0.1','	-9.58341
DataInsights	-9.58342
stic	-9.5835
,8000))	-9.58858
/80;	-9.5954
4";	-9.60403
160	-9.62032
73.	-9.6249
603	-9.62498
196	-9.62575
/10.23	-9.62665
('10.2	-9.631
5.19	-9.64528
ih	-9.6486
("10.3	-9.64927
_2=8888;	-9.6502
Status	-9.6522
/0/127.0.0.1/	-9.65902
6\"	-9.6612
4.19	-9.66564
.142	-9.66727
41.1	-9.67244
135	-9.67572
.173	-9.6772
("127.0.0.1","	-9.68609
177	-9.68679
179	-9.68966
232	-9.69852
_2=4	-9.70136
bl	-9.70762
/10.3	-9.71199
current	-9.72151
("127.0.0.1",53)	-9.72506
hd	-9.72827
▁2>	-9.73045
,80))	-9.73527
zy	-9.74225
71.1	-9.74764
ql	-9.75412
yo	-9.76303
/10.4	-9.76904
▁10.21	-9.77322
5.17	-9.7752
600	-9.77603
.223	-9.78095
.105.	-9.78216
5.16	-9.78445
148	-9.786
http	-9.79843
ipcdpnam	-9.79874
0";$	-9.80448
/10.15	-9.80476
180	-9.80495
In	-9.80714
8.15	-9.81228
/53;	-9.81301
bx	-9.81626
/443;	-9.81738
gh	-9.82138
2.23	-9.82606
5.21	-9.82932
▁10.14	-9.82992
9001"	-9.83016
",8888);$	-9.8361
.240	-9.84075
7.24	-9.84729
10.222.	-9.84771
72.1	-9.85547
=\"1690834	-9.86265
Time	-9.86657
303	-9.86739
/111	-9.87292
/10.9	-9.87435
8.20	-9.88089
audit	-9.88177
▁10.6	-9.88944
dTime	-9.89819
04",	-9.92818
80";	-9.94844
199	-9.96004
1\"	-9.97202
Process	-9.97268
oozie	-9.97268
data	-9.97281
,8888))	-9.97286
,443))	-9.97295
OM	-9.973
/127.0.0.1/5	-9.97362
agent	-9.97416
/127.0.0.1/2	-9.98665
/264	-9.99344
/103	-10.0014
9.20	-10.0045
/267	-10.0091
37.2	-10.0125
5.20	-10.0338
/263	-10.036
251.	-10.054
/233	-10.0555
0-9	-10.0715
ipdinam	-10.0727
▁root	-10.0727
sudo	-10.0727
bea	-10.0732
mation	-10.0738
▁wh	-10.0743
ype	-10.075
,8080))	-10.0766
/270	-10.0769
/9001;	-10.077
2";$	-10.0803
.72.	-10.0815
8000);	-10.0863
.194	-10.088
5.9	-10.1008
/307	-10.1072
52.1	-10.1172
48.1	-10.1179
8000);$	-10.1226
",22);`/	-10.1481
/105	-10.152
Stat	-10.1804
B	-10.1819
▁PercentUse	-10.183
ClusterMetrics	-10.1836
latform	-10.1838
hyx	-10.1838
",9001);$	-10.1843
kwo	-10.1851
181.	-10.1894
5";$	-10.1918
("10.72.	-10.2018
("10.240.	-10.2048
.190.	-10.2078
17.2	-10.2248
/246	-10.2382
22";	-10.2445
91.2	-10.2714
1.22	-10.2874
/127.0.0.1/80	-10.3007
ile	-10.3016
10.173.	-10.3049
Azure	-10.3088
Start	-10.3088
spark	-10.3089
oul	-10.3091
,9001))	-10.3095
Free	-10.3098
4";$	-10.3139
/279	-10.3139
bee	-10.3154
=\"16908391	-10.3156
/400	-10.3156
ation	-10.3161
6";$	-10.3241
/410	-10.3288
3";$	-10.3335
,53))	-10.3351
242.1	-10.3441
"127.0.0.1",443)	-10.3467
978/	-10.3697
"127.0.0.1",80);	-10.3712
/369	-10.3753
5.23	-10.3757
06",	-10.4081
10.24	-10.42
/127.0.0.1/9001	-10.4397
Memory	-10.4507
stratus	-10.4516
=\"100	-10.4546
03",	-10.4546
onta	-10.4569
/127.0.0.1/3	-10.461
",9001);`/	-10.4896
99.1	-10.5109
.244.1	-10.5537
10.77.	-10.5986
("127.0.0.1",22)	-10.6022
O	-10.6138
hive	-10.6182
timestamp	-10.6183
leaner	-10.6183
3487759	-10.6183
/127.0.0.1/443;	-10.6184
▁10.232.	-10.6188
("10.136.	-10.6205
/273	-10.6216
▁10.51.	-10.6225
("10.221.	-10.6252
57.13	-10.63
9";$	-10.6316
10.204.	-10.6324
1";$	-10.6333
39\"	-10.6422
182.1	-10.6554
.62.1	-10.8078
URL	-10.8183
microsoft	-10.8183
rans	-10.8185
5.89.1	-10.8187
("10.65.1	-10.827
0.56.1	-10.8305
9.237	-10.8641
8284	-10.8879
7",9001)	-10.9778
10.196.	-11.0014
10.99.1	-11.0355
0.76.2	-11.0461
3481299	-11.0683
START	-11.0683
1323250	-11.0683
=\"16908451	-11.0683
health	-11.0683
ppegbl	-11.0683
1156733	-11.0683
Resource	-11.0683
.114",5	-11.0684
8",443);$	-11.0685
▁10.158.1	-11.0689
("10.31.1	-11.0695
10.132.16	-11.081
168.14	-11.1468
10.109.	-11.2987
10.177.	-11.3627
3573692	-11.4016
3643242	-11.4016
3647738	-11.4016
2406208	-11.4016
2.191.1	-11.4016
3611543	-11.4016
=\"16908450	-11.4016
config	-11.4017
2674115	-11.4017
5.139.1	-11.4017
4.114.13	-11.4017
10.107.14	-11.4019
10.146.21	-11.4022
10.96.2	-11.4028
"10.62.6	-11.4058
10.115.12	-11.418
10.150.11	-11.4469
10.231.2	-11.4488
10.40.17	-11.4775
