<unk>	0
<s>	0
</s>	0
/	-3.13574
▁	-3.2756
.	-3.65416
▁/	-3.66184
▁-	-3.74989
_	-3.76037
c	-3.79698
bin	-4.15158
r	-4.28405
(	-4.32838
bash	-4.40975
k	-4.46672
proc	-4.50095
s	-4.5499
;	-4.60368
,	-4.65827
exe	-4.65907
▁read	-4.69037
e	-4.69677
os	-4.74345
lin	-4.75253
p	-4.75792
socket	-4.76334
▁"	-4.87738
port	-5.03453
f	-5.03978
n	-5.07258
open	-5.07962
2	-5.1356
=	-5.18688
"	-5.21206
'	-5.22356
i	-5.22632
:	-5.25075
&	-5.27053
("	-5.30418
-	-5.33312
▁{	-5.34966
P	-5.37979
t	-5.39995
");	-5.41024
\	-5.42838
d	-5.44345
#	-5.5059
▁2>&3	-5.51524
memory	-5.53171
sh	-5.57086
us	-5.6106
▁'	-5.6276
<&3	-5.64601
usage	-5.65045
▁>&3	-5.65195
▁}	-5.67209
sec	-5.7048
S	-5.7177
▁os	-5.72127
}	-5.72208
{	-5.72679
($	-5.7342
",	-5.73424
▁in	-5.75138
fd	-5.77866
▁a	-5.79522
("/	-5.79726
dev	-5.80312
)	-5.80478
du	-5.8063
pu	-5.81113
no	-5.81489
wk	-5.81592
sock	-5.8188
print	-5.84267
dash	-5.84603
stat	-5.84611
▁|	-5.84935
▁'$	-5.86071
v	-5.86073
exit	-5.87751
▁while	-5.88086
exec	-5.90094
ts	-5.91989
rss	-5.93217
sp	-5.94806
[	-5.95064
3	-5.95707
file	-5.96528
get	-5.96725
Socket	-5.97442
onnect	-5.97814
(),	-5.98248
im	-5.99091
ph	-5.99761
awn	-6.01676
_2	-6.02678
sys	-6.08664
T	-6.10028
_1	-6.13755
pty	-6.17068
re	-6.18462
l	-6.18726
new	-6.1979
a	-6.20327
env	-6.20451
▁+	-6.23144
pid	-6.23273
]	-6.25192
tcp	-6.27217
9	-6.28655
E	-6.28896
');	-6.28979
udp	-6.29274
w	-6.30727
>	-6.30977
,:	-6.3243
EL	-6.32546
▁H	-6.3274
Y	-6.33598
o	-6.34699
);	-6.36391
▁T	-6.37631
▁do	-6.37983
6	-6.39281
F	-6.3962
,"	-6.40644
;'	-6.40725
▁if	-6.41085
▁3<>	-6.41907
▁nc	-6.42496
>&	-6.44339
in	-6.44398
INET	-6.46027
")	-6.46387
by	-6.46657
mp	-6.46828
▁for	-6.47198
python	-6.48461
er	-6.49495
));	-6.49789
")'	-6.5012
4	-6.50242
CP	-6.50702
u	-6.511
_1,	-6.51128
▁ru	-6.51253
cho	-6.51294
8	-6.52014
cmd	-6.52112
();	-6.52492
5	-6.5646
_1=	-6.56628
al	-6.56978
A	-6.58278
7	-6.58501
host	-6.59546
1	-6.60076
time	-6.60621
_2=	-6.61554
=\""$	-6.6197
((	-6.62601
stime	-6.63049
+	-6.63207
si	-6.64345
th	-6.65147
|	-6.68152
▁print	-6.70481
"}	-6.70554
C	-6.71433
('	-6.73834
}'	-6.74161
0	-6.74534
!	-6.75
▁per	-6.75999
IO	-6.76684
?	-6.78835
$_	-6.78992
ze	-6.79004
ex	-6.79585
▁getline	-6.79674
){	-6.79861
if	-6.80165
~	-6.80517
ame	-6.80718
cgroup	-6.82475
▁cl	-6.82742
▁"$2	-6.831
check	-6.831
::	-6.83895
inet	-6.8403
int	-6.84652
io	-6.84724
▁>	-6.84774
▁0<&3	-6.84908
STDIN	-6.85353
_2);	-6.85545
va	-6.86404
cat	-6.86934
ip	-6.87386
siphond	-6.88012
K	-6.88019
STD	-6.88416
STREAM	-6.8894
SO	-6.88942
system	-6.89858
,2)	-6.90188
,1	-6.90555
365	-6.90657
▁ex	-6.91179
$_=	-6.91346
▁c	-6.91403
cu	-6.91534
▁0>&1	-6.91747
qu	-6.93302
2"))	-6.93306
▁g	-6.93681
(0	-6.93939
▁sh	-6.94323
shell	-6.94633
sd	-6.95014
out	-6.96126
"\	-6.96162
_2,	-6.96844
▁pty	-6.97447
ge	-6.97491
m	-6.9891
au	-7.00025
=>	-7.00246
err	-7.01612
count	-7.03311
pa	-7.04558
bytes	-7.04925
3"\	-7.05958
q	-7.10715
1")	-7.12024
▁(	-7.12372
y	-7.12379
eu	-7.13946
li	-7.14731
log	-7.1767
▁e	-7.17684
cd	-7.19211
▁io	-7.21108
null	-7.22025
process	-7.23326
sub	-7.23379
);$	-7.2338
▁1	-7.23803
monitor	-7.23974
to	-7.24044
ds	-7.25935
ern	-7.27363
0\	-7.28828
el	-7.29053
and	-7.29142
0-9]	-7.30069
sure	-7.30775
mode	-7.30817
lo	-7.30889
▁$	-7.31247
sche	-7.31469
lle	-7.31494
led	-7.31573
▁me	-7.31575
tor	-7.31698
▁mi	-7.31947
cores	-7.32005
▁user	-7.33045
))	-7.33117
nal	-7.338
_"$1"	-7.34327
ch	-7.34629
co	-7.3483
▁cu	-7.36172
tu	-7.36516
R	-7.36941
M	-7.37276
op	-7.38133
for	-7.39682
ru	-7.40709
($_	-7.41907
vi	-7.41964
2);	-7.42155
20"	-7.42699
fs	-7.42947
ne	-7.43161
3)	-7.43306
=\"	-7.43901
read	-7.44551
ww	-7.44555
1);	-7.45797
dir	-7.45965
ys	-7.46108
scr	-7.46522
failed	-7.47525
Dir	-7.47529
0);	-7.47666
;$	-7.47979
0)	-7.48009
BE	-7.48372
1))	-7.48434
▁$0	-7.48499
IN	-7.49057
tob	-7.49319
▁m	-7.4974
pro	-7.50414
ay	-7.5068
N	-7.50939
="	-7.51011
ER	-7.51117
on	-7.51234
ddr	-7.51536
at	-7.51556
<>	-7.51816
res	-7.52335
b	-7.53071
gets	-7.53802
g	-7.54142
▁!	-7.54716
yn	-7.55015
`	-7.55168
_1),$	-7.55424
▁2=>$	-7.56161
▁1=>$	-7.56163
(0=>$	-7.56163
_1);$	-7.56456
_1);	-7.56671
OU	-7.57107
▁IO	-7.57282
addr	-7.57398
▁ar	-7.57771
\",	-7.5778
))))	-7.58055
>&3	-7.58731
Pe	-7.59816
gw	-7.61512
use	-7.61952
ua	-7.62738
▁l	-7.63017
rm	-7.63258
▁>>	-7.6414
▁((	-7.65172
ss	-7.66917
z	-7.67485
cut	-7.68187
x	-7.68189
▁>&	-7.68363
ain	-7.68366
127.0.0.1	-7.68548
▁run	-7.68805
up	-7.72415
;(	-7.73256
()	-7.741
ba	-7.74927
lib	-7.75159
fn	-7.75804
)'	-7.77527
am	-7.80328
auditbeat	-7.80675
▁v	-7.82723
se	-7.84044
Monitor	-7.84205
▁=	-7.8452
hom	-7.84523
user	-7.84827
20	-7.8913
nd	-7.90986
Application	-7.91661
Core	-7.91662
nc	-7.91723
"))	-7.92485
▁I	-7.92854
etric	-7.94277
8125	-7.94349
ores	-7.94966
H	-7.9539
▁dash	-7.97019
h	-7.97565
ri	-7.98149
gen	-7.99192
14	-7.99475
Cluster	-7.99719
eva	-8.00253
▁cmd	-8.02418
HDI	-8.02634
▁host	-8.05387
nsight	-8.05476
md	-8.0682
j	-8.07847
("127.0.0.1",	-8.08982
44	-8.13421
10	-8.14716
wn	-8.15023
01",	-8.15052
10-	-8.15344
▁C	-8.15912
DP	-8.15977
rkClusterMetrics	-8.16427
▁$1	-8.17169
ost	-8.1874
16	-8.20924
";	-8.21844
","	-8.22906
age	-8.23762
/1	-8.28118
51	-8.33206
('/	-8.35797
▁8000	-8.37027
15	-8.38783
01	-8.39024
ue	-8.39784
▁22	-8.40995
AR	-8.41047
45	-8.41542
rom	-8.42916
ed	-8.43096
ver	-8.43214
▁8888	-8.4439
<	-8.44733
61	-8.44924
sor	-8.45037
68	-8.46874
ervi	-8.47629
53	-8.48916
75	-8.49054
▁8080	-8.491
23	-8.49992
▁443	-8.50127
der	-8.50193
▁53	-8.50983
service	-8.51739
ape	-8.5218
1\",	-8.53121
78	-8.55282
50	-8.56202
D	-8.59804
58	-8.6058
17	-8.61627
89	-8.62008
80	-8.62884
81	-8.62947
un	-8.63883
/4	-8.63923
40	-8.65128
02	-8.6564
25	-8.66805
azsec	-8.6976
82	-8.71033
31	-8.71128
0.1	-8.71223
▁80	-8.71322
90	-8.71441
43	-8.7169
1.	-8.71789
▁$17	-8.72911
24	-8.75652
33	-8.78302
_2=8000;	-8.78568
55	-8.78734
66	-8.78786
35	-8.79403
28	-8.79477
4/	-8.80987
36	-8.81162
_1="127.0.0.1";	-8.81681
29	-8.82816
42	-8.83112
6.1	-8.84097
nam	-8.84524
21	-8.86238
76	-8.86486
11	-8.87665
32	-8.90508
▁9001	-8.90619
52	-8.90832
>/	-8.90931
19	-8.9156
▁dis	-8.91702
22	-8.92067
48	-8.92627
▁2>&1	-8.95266
_2=8080;	-8.95274
flu	-8.95281
("10.1	-8.95697
pl	-8.96192
("10.	-8.96221
13	-8.96686
86	-8.97107
59	-8.97239
▁10.	-8.98152
63	-8.98621
Mem	-8.98974
_2=443;	-8.98977
_2=22;	-8.99009
vice	-8.99069
47	-8.99256
37	-9.0075
08	-9.00992
74	-9.01118
93	-9.01342
12	-9.01503
46	-9.01896
49	-9.02186
77	-9.02331
local	-9.02687
jo	-9.03981
4.	-9.05031
64	-9.05509
41	-9.06919
▁10.1	-9.07105
zl	-9.07895
00	-9.09587
67	-9.09657
_2=9001;	-9.10988
ent	-9.11215
,"10.	-9.1136
9.	-9.11386
8080	-9.11418
yf	-9.11452
30	-9.12158
94	-9.12819
_1="10.	-9.14295
cg	-9.14764
ap	-9.14802
70	-9.1575
7\",	-9.16057
=\"7	-9.16188
72	-9.16896
/28	-9.1793
99	-9.18298
83	-9.18335
/19	-9.18476
/0/10.	-9.19139
65	-9.19551
56	-9.19757
$15	-9.19764
26	-9.19882
/29	-9.2031
wu	-9.20532
57	-9.2083
/10	-9.21996
95	-9.22107
("10.2	-9.22166
79	-9.23164
▁0	-9.23237
_2=53;	-9.24646
05	-9.25008
gm	-9.25149
8/	-9.25386
42/	-9.25399
jq	-9.25614
02",	-9.2591
=\"1	-9.26267
/23	-9.26989
8-	-9.2738
60/	-9.27726
7.1	-9.27829
0"	-9.28156
5/	-9.28284
88	-9.28495
8888	-9.29411
▁Percent	-9.29671
11-	-9.30394
18	-9.30513
87	-9.30619
60	-9.31932
98	-9.33549
3');	-9.33764
/10.	-9.34676
▁w	-9.34884
_1="127.0.0.1";$	-9.34924
37/	-9.3533
wd	-9.35987
/17	-9.36953
34	-9.36997
gg	-9.37533
73/	-9.37818
net	-9.37871
▁'"'"'	-9.37901
zo	-9.38667
9001	-9.38828
7.	-9.39825
ipcdp	-9.39973
xn	-9.4044
_2=80;	-9.40464
97	-9.40471
UsedMemory	-9.40493
omi	-9.40636
eb	-9.40901
bj	-9.40926
184	-9.41242
/10.1	-9.41808
39/	-9.42207
nu	-9.42278
an	-9.42538
nb	-9.4259
/12	-9.42793
62	-9.42985
/22;	-9.43424
21/	-9.43813
96	-9.43911
38	-9.44472
U	-9.45936
57/	-9.46005
261	-9.4607
/5	-9.46241
205	-9.46689
69	-9.46904
14/	-9.46943
/33	-9.47661
I	-9.4799
3/	-9.48136
01-	-9.48411
443")	-9.48448
clo	-9.48673
49/	-9.48717
72/	-9.48897
80";	-9.4896
hn	-9.491
3\",	-9.49221
_1="10.1	-9.50069
91	-9.50315
▁3	-9.51163
bn	-9.51434
6/	-9.51965
03/	-9.52215
96/	-9.52484
DataInsights	-9.52588
stic	-9.52604
",80);	-9.53123
▁5	-9.53428
ppe	-9.53519
47/	-9.5369
xl	-9.5396
app	-9.54116
92	-9.54153
41/	-9.54225
4\",	-9.54615
1/	-9.55299
130	-9.56863
▁4	-9.57124
95/	-9.57343
9\",	-9.57482
",8080);	-9.57857
85	-9.57859
30/	-9.57871
tq	-9.57923
8_1	-9.58207
88/	-9.58727
ud	-9.5879
▁8	-9.59117
ih	-9.5924
_2=8888;	-9.59264
Status	-9.59479
/53	-9.59931
52/	-9.59949
0_2	-9.60111
'"'"'	-9.6141
8000")	-9.6245
186	-9.62796
99/	-9.63721
/34	-9.63844
61/	-9.63889
hd	-9.63961
0_1	-9.64349
/80;	-9.64443
5\",	-9.64911
("10.16	-9.65079
cq	-9.65599
",8000);	-9.66064
current	-9.66398
",9001);	-9.66776
71	-9.6692
104	-9.67029
▁2>	-9.67136
/80	-9.67145
dg	-9.67617
31/	-9.68067
125	-9.68108
255	-9.68265
ql	-9.68489
ut	-9.68577
/8	-9.69489
3.2	-9.69724
("1	-9.70316
vu	-9.7043
4_1	-9.70651
/8888;	-9.71116
12/	-9.72028
▁10.2	-9.72664
','	-9.7271
8.2	-9.73351
204	-9.73353
9001")	-9.7337
,22))	-9.73876
,"127.0.0.1:	-9.74065
ipcdpnam	-9.74112
221	-9.74231
In	-9.74952
yo	-9.75061
wa	-9.75097
bx	-9.75239
$	-9.7534
79/	-9.75489
22/	-9.75969
03	-9.76071
44/	-9.76087
.10	-9.76445
zy	-9.76596
fm	-9.76721
("127.0.0.1","	-9.76732
8_2	-9.76904
85/	-9.77217
rx	-9.7738
18/	-9.77715
67/	-9.77912
▁10	-9.78235
7/	-9.78332
.18	-9.78335
00/	-9.78357
08/	-9.78413
/10.2	-9.78477
35/	-9.78797
pg	-9.79014
132	-9.79092
4_2	-9.79634
81/	-9.80354
59/	-9.80406
",443);	-9.80556
7";	-9.80881
63/	-9.81132
Time	-9.818
rg	-9.81912
audit	-9.82424
("127.0.0.1",53)	-9.82682
27/	-9.82875
65/	-9.8308
04	-9.83734
ju	-9.84042
br	-9.84124
/53;	-9.84273
/38	-9.84423
zw	-9.854
133	-9.85894
bl	-9.85974
17/	-9.85977
rit	-9.8614
ix	-9.86359
53/	-9.86376
70.	-9.86518
uj	-9.86767
160	-9.8706
183	-9.87572
51/	-9.8759
('10.	-9.87592
("10.8	-9.89338
192	-9.89404
",53);	-9.89572
93/	-9.9029
ag	-9.90516
/8080;	-9.90544
=\"169083	-9.9095
('127.0.0.1','	-9.91023
229	-9.91399
oozie	-9.91514
Process	-9.91515
data	-9.91525
agent	-9.91665
86/	-9.91746
=\"6	-9.92327
36/	-9.92409
le	-9.92592
169	-9.93059
0-	-9.93119
bc	-9.93698
('10.1	-9.93735
8000);	-9.93877
363	-9.94298
aw	-9.94925
8\",	-9.95792
_2=5	-9.95866
04",	-9.95966
136	-9.96232
(("127.0.0.1",	-9.96746
180	-9.969
16"	-9.9712
gh	-9.97574
70/	-9.97634
8";	-9.97754
fx	-9.98067
91/	-9.98179
used	-9.98396
241	-9.98442
nz	-9.98653
247	-9.98751
34/	-9.98881
146	-9.98923
177	-9.99007
19/	-9.99184
_2=4	-9.99192
/22	-9.99308
qd	-9.99547
hs	-9.99576
tg	-9.99603
.30	-9.99608
8080")	-9.99751
/39	-9.99999
32/	-10.0025
4.17	-10.0046
249	-10.0059
90/	-10.0074
,8000))	-10.0099
L	-10.012
0.13	-10.0122
gn	-10.0128
/0/127.0.0.1/	-10.0136
▁root	-10.0151
ipdinam	-10.0152
sudo	-10.0152
bea	-10.0154
mation	-10.0154
/10.9	-10.0162
0-9	-10.0163
▁wh	-10.0164
ype	-10.0166
zx	-10.0202
("10.13	-10.0224
dTime	-10.024
/0/10.1	-10.0256
225	-10.028
6\",	-10.0309
ob	-10.0313
56/	-10.0321
hl	-10.0321
245	-10.0335
15/	-10.0339
xw	-10.0351
vj	-10.0358
=\"65	-10.0366
46/	-10.0369
ect	-10.037
("10.6	-10.0404
227	-10.0422
/8000;	-10.05
208	-10.0516
409	-10.0577
zr	-10.0604
groups	-10.0621
182	-10.0654
/8888	-10.0659
84/	-10.067
366	-10.0675
07/	-10.0707
126	-10.0771
179	-10.0792
85.	-10.0845
50/	-10.0903
▁Ip	-10.0907
fa	-10.0938
9";	-10.1
kj	-10.1011
▁10.12	-10.1046
.100	-10.1049
248	-10.1113
.92	-10.1149
62/	-10.1177
riv	-10.1181
rj	-10.1188
83/	-10.1211
38/	-10.1215
80/	-10.1225
Stat	-10.1227
127	-10.1234
B	-10.1244
OM	-10.1251
▁PercentUse	-10.1255
98/	-10.1258
ClusterMetrics	-10.1261
hyx	-10.1264
kwo	-10.1272
,443))	-10.1274
22";	-10.13
("10.21	-10.1304
hz	-10.1305
zh	-10.1321
76/	-10.1327
cx	-10.1329
53";	-10.136
ile	-10.1406
232	-10.1417
/21	-10.1451
158	-10.1453
:80	-10.1473
TH	-10.1473
805	-10.1526
ab	-10.1529
qh	-10.1555
707	-10.1642
170	-10.1646
02-	-10.1651
135	-10.1656
/15	-10.1682
05/	-10.1702
gy	-10.1727
.209	-10.1735
3";	-10.1751
▁7	-10.1824
85\",	-10.1848
",8888);	-10.1872
EC	-10.1878
/443	-10.1885
112	-10.1896
/11	-10.2004
ad	-10.2008
hw	-10.2057
/103	-10.2099
97/	-10.2115
149	-10.2172
=\"1690840	-10.2186
77/	-10.2203
11/	-10.2303
09/	-10.231
49.1	-10.2313
71/	-10.2327
541	-10.2334
tv	-10.2366
(8	-10.2373
28/	-10.2401
";$	-10.2418
nv	-10.2462
320	-10.2502
Start	-10.2513
Azure	-10.2513
spark	-10.2513
/24	-10.2517
134	-10.2519
/32	-10.252
Free	-10.2523
,8080))	-10.2543
▁10.17	-10.2547
hh	-10.2549
jx	-10.2555
ol	-10.2558
localhost	-10.2562
bee	-10.2565
US	-10.259
▁'$0	-10.2609
209	-10.2618
8080);	-10.2636
2.2	-10.2638
/1/	-10.2651
68/	-10.2663
7_1,	-10.2671
oul	-10.2694
zm	-10.2696
5";$	-10.2711
521	-10.2742
("10.23	-10.2742
/263	-10.2761
75/	-10.2769
54/	-10.2821
vg	-10.2821
kh	-10.2829
8000);$	-10.2834
eep	-10.2868
04/	-10.2887
("10.20	-10.2888
ub	-10.2892
55.	-10.2896
16/	-10.2899
123	-10.29
5.20	-10.292
("10.11	-10.294
as	-10.2948
://	-10.2967
▁10.9	-10.2968
8888);	-10.2969
▁10.8	-10.2988
54.	-10.3021
212	-10.3041
yq	-10.3044
8888")	-10.3048
);`/	-10.3056
=\"1690841	-10.3069
/37	-10.3072
/44	-10.31
73.	-10.3113
4_2,	-10.3128
840	-10.3138
/105	-10.3177
17\",	-10.3193
','44	-10.3196
0\",	-10.323
218	-10.3257
990	-10.3291
69/	-10.3296
/386	-10.333
/10.23	-10.3347
.85	-10.3351
/10.15	-10.3353
("10.9	-10.3355
443	-10.3363
▁10.6	-10.3366
87/	-10.3372
8000	-10.3418
▁'$5	-10.3463
10/	-10.3477
6\"	-10.3479
92/	-10.3489
94\",	-10.3499
/9001;	-10.3502
http	-10.3523
5.9	-10.3525
▁10.5	-10.3555
304	-10.3569
nj	-10.3572
("10.4	-10.3583
PS	-10.3599
($0	-10.3619
"127.0.0.1",80);	-10.364
/114	-10.3641
▁z	-10.371
/138	-10.3715
wl	-10.3728
444	-10.3729
711	-10.3756
",8888);$	-10.3763
45.1	-10.3789
.142	-10.3848
gl	-10.3858
xj	-10.3861
mt	-10.3872
106	-10.3911
62\",	-10.3923
Memory	-10.3931
my	-10.394
06",	-10.3941
stratus	-10.3941
esd	-10.3944
/31	-10.3944
,9001))	-10.3945
",8888))	-10.3946
=\"100	-10.3946
,80))	-10.3971
edh	-10.3971
23/	-10.3975
96\",	-10.3986
zj	-10.3991
.217	-10.3995
12",	-10.4013
wz	-10.4023
2";$	-10.4035
978/	-10.4071
/142	-10.4091
855	-10.4102
80")	-10.4115
7;	-10.4118
/200	-10.4122
/219	-10.4143
("10.7	-10.4144
91\",	-10.4147
("10.19	-10.4149
715	-10.4156
909	-10.416
842	-10.4167
12-	-10.417
ra	-10.4189
/59	-10.4193
/69	-10.421
onta	-10.4212
3_2=	-10.4219
_1="10.8	-10.4228
794	-10.4251
wx	-10.4275
/123	-10.4283
9_2	-10.4333
/164	-10.4333
▁10.21	-10.435
89/	-10.4354
/7/	-10.436
.174	-10.4399
/270	-10.4419
1\"	-10.4428
/10.4	-10.4433
qn	-10.4455
/10.7	-10.4455
252	-10.4463
/233	-10.4496
33.	-10.4511
02/	-10.4516
yj	-10.452
66/	-10.4525
374	-10.4539
("10.17	-10.4546
1-	-10.4552
1.22	-10.4559
=\"16908365	-10.4559
600	-10.4573
("10.3	-10.4578
ES	-10.4598
("4	-10.4626
/10.17	-10.4629
bg	-10.4634
PA	-10.4649
lj	-10.4707
639	-10.4714
4\"	-10.4722
("8	-10.4767
0.2	-10.4782
gv	-10.4792
("10.12	-10.4795
3_1=	-10.4796
196	-10.48
/410	-10.4806
("10.18	-10.482
4";	-10.4827
2);`	-10.4844
8888"	-10.4863
=\"1690831	-10.4865
dx	-10.4872
40/	-10.4873
116	-10.4884
007	-10.4906
vm	-10.4915
/35	-10.4921
=\"1690832	-10.4958
/195	-10.4967
3.12	-10.4997
("10.25	-10.5018
/26	-10.5035
/443;	-10.5045
98\",	-10.5076
5.17	-10.5078
mn	-10.5084
/60	-10.511
03",	-10.5114
/111	-10.5143
49.	-10.5169
11",	-10.5201
506	-10.5201
33/	-10.5208
48/	-10.5219
/279	-10.5222
200	-10.5301
ul	-10.5302
pm	-10.5344
9001"	-10.5376
3_1,	-10.5381
/331	-10.5443
64/	-10.5448
46\"	-10.5477
928	-10.5491
73\"	-10.5503
=\"16908441	-10.5504
latform	-10.5506
131	-10.5516
290	-10.5548
yi	-10.556
iy	-10.5562
/127.0.0.1/5	-10.5563
O	-10.5563
timestamp	-10.5608
3487759	-10.5608
hive	-10.5608
06-	-10.5612
=\"16908378	-10.5613
▁10.51.	-10.5614
_1="10.7	-10.5618
207	-10.5623
3";$	-10.5626
=\"16908394	-10.563
CL	-10.5631
ode	-10.5634
=\"16908326	-10.5637
/127.0.0.1/443;	-10.5639
=\"16908325	-10.5639
("127.0.0.1",22)	-10.5641
cess	-10.5652
664/	-10.5664
/343	-10.5674
/127.0.0.1/53	-10.5675
gj	-10.5676
/110	-10.5684
/10.11	-10.5689
','22	-10.5693
388	-10.5698
▁10.23	-10.5702
jy	-10.571
4.19	-10.571
10\",	-10.5725
776/	-10.5733
097/	-10.5735
625/	-10.5741
("9	-10.5745
633	-10.5746
19\",	-10.5748
154	-10.5752
.50	-10.576
26\",	-10.5764
","80	-10.5769
.103	-10.5777
qg	-10.5792
/161	-10.5804
xln	-10.5809
39\",	-10.5819
807	-10.5849
674	-10.5849
js	-10.5859
=\"16908335	-10.5866
024/	-10.5879
om	-10.5887
27\",	-10.5888
=\"16908432	-10.5894
1','	-10.5899
=\"16908416	-10.5914
=\"1690835	-10.5918
=\"5	-10.5927
/368	-10.5938
ym	-10.5939
3.1	-10.596
108	-10.598
/98	-10.5983
67\",	-10.5988
▁10.20	-10.5999
565	-10.6009
44\",	-10.6014
gb	-10.602
37.2	-10.6024
6_2	-10.6037
090	-10.6073
lb	-10.6084
("10.24	-10.6112
=\"82	-10.6119
905	-10.6121
▁http	-10.6125
.121	-10.6141
oj	-10.615
6";$	-10.6153
6.15	-10.6168
8.16	-10.6175
7";$	-10.62
/10.12	-10.6213
/10.22	-10.6254
('10.2	-10.6292
qo	-10.6293
("10.10	-10.6299
1_2=	-10.6302
/280	-10.6355
68\",	-10.6356
097	-10.6357
2.23	-10.6366
731	-10.6376
/228	-10.6383
("10.14	-10.6385
54\"	-10.6403
=\"81	-10.6408
jz	-10.6428
",80);$	-10.6446
3251	-10.6461
188	-10.6463
/140	-10.6472
ml	-10.6474
:53	-10.6481
",22);	-10.6494
181.	-10.6502
8.20	-10.6524
/243	-10.6526
.223	-10.657
335	-10.6585
za	-10.6605
("127.0.0.1",4	-10.6619
4_2=	-10.6645
=\"16908322	-10.6658
sq	-10.6667
8_2=	-10.6699
4_1=	-10.6703
143	-10.672
148	-10.6724
.72.	-10.674
_1="10.15	-10.6751
/174	-10.6758
ron	-10.6832
/113	-10.6851
645	-10.6851
,"10.1	-10.6851
,"10.22	-10.6859
/107	-10.6874
/10.3	-10.6904
6','	-10.6951
ez	-10.6952
=\"16908319	-10.6958
("10.125.	-10.6959
/209	-10.6974
/224	-10.7007
1.18	-10.704
.190.	-10.7077
▁58	-10.7108
010/	-10.712
771	-10.7124
/267	-10.7126
("10.127.	-10.7141
("3	-10.7198
324	-10.7198
6",9001);	-10.7215
=\"3	-10.7232
/259	-10.7233
/312	-10.7239
yt	-10.7239
5_2	-10.7241
7.4	-10.7259
0);`/	-10.726
93\",	-10.7288
▁10.18	-10.7296
/264	-10.7311
469	-10.7351
ipcdpppe	-10.7366
398	-10.7385
▁10.14	-10.742
ED	-10.7433
/302	-10.7441
yc	-10.7459
64\"	-10.7497
1.11	-10.7498
39\"	-10.7509
11\",	-10.7513
/359	-10.7517
Su	-10.7517
",9001);`/	-10.7522
,"10.14	-10.7538
",22);`/	-10.7546
04-	-10.7556
637	-10.7561
_1="10.23	-10.7583
8.15	-10.7589
114.	-10.7589
5.16	-10.7608
5_1	-10.7608
URL	-10.7608
microsoft	-10.7613
▁10.244.	-10.7613
("10.49.	-10.7615
rans	-10.7616
=\"742	-10.7616
=\"103	-10.7617
lls	-10.7631
/127.0.0.1/8000;	-10.7646
/127.0.0.1/8888;	-10.7647
=\"16908449	-10.765
127.0.0.1",443);	-10.7656
51";	-10.7658
03\",	-10.7661
=\"16908405	-10.7663
.145	-10.7666
92\",	-10.7667
5.19	-10.768
hie	-10.7681
=\"16908351	-10.7684
jg	-10.7695
48\",	-10.7697
7_2=	-10.7718
=\"16908395	-10.7719
("10.247.	-10.7725
zg	-10.7738
74\"	-10.7743
178/	-10.7753
46.7	-10.7761
=\"59	-10.7767
/153	-10.7776
165/	-10.7778
",22))	-10.7783
▁10.13	-10.7793
643	-10.7793
axj	-10.7797
",53);$	-10.7808
/244	-10.7813
=\"16908320	-10.7824
("10.232.	-10.7835
",53);`	-10.7848
/212	-10.7859
228	-10.7864
505	-10.7865
7.10	-10.7865
00\"	-10.7868
,53))	-10.7871
▁su	-10.7874
1815	-10.7875
5.21	-10.7879
/636	-10.7884
2181	-10.7899
jw	-10.7906
194/	-10.791
/192	-10.7915
qz	-10.7916
/266	-10.7922
=\"16908437	-10.7924
=\"16908402	-10.7938
4.18	-10.7972
298	-10.8012
ux	-10.8013
727/	-10.8036
.105.	-10.8038
,"10.12	-10.8054
ov	-10.806
80);`/	-10.8071
",8000))	-10.8085
▁$7	-10.8094
/300	-10.8103
8_1="10.1	-10.8103
425/	-10.8107
/206	-10.8113
22;	-10.8117
9.20	-10.8124
43\",	-10.8124
2949	-10.8129
▁10.16	-10.8133
41.1	-10.8144
3','	-10.8146
/148	-10.8151
","53	-10.8157
/358	-10.8162
206	-10.8181
("10.187.	-10.8195
/824	-10.8225
/0/10.11	-10.8238
.173	-10.8241
5.23	-10.8252
13\",	-10.8256
593	-10.8269
jd	-10.8349
06";	-10.8352
_1="10.12	-10.8353
635	-10.8358
ick	-10.8364
/287	-10.8381
/10.8	-10.8388
85.7	-10.8397
934	-10.8401
71.1	-10.8402
hr	-10.8428
2",8888);	-10.8428
/246	-10.8436
9.22	-10.8437
9','	-10.8451
/10.13	-10.8461
770	-10.8471
/8000	-10.8473
("0	-10.8474
/20	-10.8478
▁'$9	-10.849
/307	-10.8494
qa	-10.8506
aq	-10.8529
=\"1690843	-10.8557
194.	-10.8576
091	-10.8577
2/443	-10.8602
167	-10.8612
948	-10.8612
77\",	-10.8619
=\"64	-10.8645
7_1=	-10.867
32.2	-10.8679
xd	-10.8694
432	-10.87
9512	-10.8701
603	-10.8701
qj	-10.8716
bv	-10.8727
▁160	-10.8761
14\"	-10.8769
/401	-10.884
/0/10.3	-10.8844
/10.21	-10.8861
65\"	-10.8872
52.1	-10.8887
05\",	-10.8931
8_1=	-10.8955
/50	-10.8976
/384	-10.8977
/281	-10.8982
.199	-10.9
(1	-10.9006
/479	-10.9007
je	-10.9018
/357	-10.9027
/274	-10.9047
(5	-10.9052
59\",	-10.9052
352	-10.9066
299/	-10.9072
/369	-10.9091
50\"	-10.9092
56_1	-10.9103
9";$	-10.9112
gp	-10.9129
▁51	-10.9142
▁'$3	-10.9159
98_1	-10.9172
/73	-10.9181
103	-10.9183
4";$	-10.9197
("127.0.0.1",5	-10.9203
("10.72.	-10.9219
mo	-10.9243
▁10.206.	-10.9267
(7	-10.9277
393	-10.9278
('10.13	-10.929
.139	-10.9293
77_1	-10.9344
/207	-10.9345
/117	-10.9349
199	-10.936
/151	-10.9366
09\"	-10.9368
5.100	-10.9392
1.8	-10.9421
9.237	-10.9423
=\"1690844	-10.9487
/371	-10.9491
/342	-10.9532
6.6	-10.9537
5','	-10.954
338	-10.9548
56_2	-10.9559
('10.3	-10.9561
_1="10.2	-10.9574
04.2	-10.9583
98_2	-10.9612
/100	-10.9616
.246	-10.9624
xf	-10.9641
495	-10.9661
/400	-10.9677
(0=>$0	-10.9682
▁1=>$0	-10.9682
▁2=>$0	-10.9683
_1),$0	-10.9684
48.1	-10.9693
▁'$6	-10.9696
/187	-10.9722
10.24	-10.9729
9001);	-10.9741
.239	-10.9747
77_2	-10.9755
/127.0.0.1/3	-10.9767
▁'$4	-10.978
164	-10.9792
=\"1690833	-10.9816
/276	-10.9826
/362	-10.9835
,"10.2	-10.9842
",9001);$	-10.9871
sy	-10.9878
▁10.22	-10.9886
("10.136.	-10.9895
xcn	-10.9904
hx	-10.9909
=\"67	-10.9928
1_1=	-10.9949
745/	-10.9962
0.16	-11.0011
33\"	-11.0013
6_1	-11.0022
",80))	-11.003
▁10.232.	-11.0042
/127.0.0.1/80	-11.0045
1_1,	-11.0075
yz	-11.0076
0";$	-11.0095
2729	-11.0103
1156733	-11.0108
Resource	-11.0108
START	-11.0108
health	-11.0108
.114",5	-11.0108
8",443);$	-11.0108
=\"16908451	-11.0108
heap	-11.0108
Service	-11.0108
ltes	-11.0108
7165_1	-11.0108
1323250	-11.0109
("10.238.	-11.0109
98817	-11.011
("10.51.	-11.011
("10.31.1	-11.011
/785/	-11.0111
("10.243.1	-11.0111
("10.147.1	-11.0112
/641/	-11.0112
("10.211.	-11.0113
,8888))	-11.0114
/197	-11.0114
▁10.230.	-11.0114
▁10.154.	-11.0115
,"127.0.0.1:53	-11.0118
84\",	-11.0119
5517_1	-11.0121
:1000	-11.0123
date	-11.0123
306/	-11.0124
("10.183.	-11.0125
_1="10.86.	-11.0126
0",53);	-11.0126
ipdi	-11.0126
5",22);	-11.013
=\"16908425	-11.0131
41";	-11.0133
3481299	-11.0134
=\"16908398	-11.0134
8";$	-11.0134
904/	-11.0138
5460	-11.0143
("10.112.	-11.0143
_2=6	-11.0146
=\"16908418	-11.0149
=\"88	-11.015
19\"	-11.0151
/127.0.0.1/8080;	-11.016
=\"16908420	-11.0163
0.22	-11.0169
6.134	-11.017
8.65	-11.0172
("10.69.	-11.0173
=\"16908442	-11.0186
8.161	-11.0186
70\",	-11.0191
/127.0.0.1/22;	-11.0192
02\",	-11.0192
/127.0.0.1/9001;	-11.0192
000/	-11.0193
2/9001	-11.0197
52\",	-11.02
/958	-11.0201
195	-11.0207
=\"97	-11.021
/367	-11.0213
xh	-11.0214
/166	-11.022
10.204.	-11.022
cleaner	-11.023
rror	-11.0235
=\"58	-11.0236
187/	-11.0238
/237	-11.0247
▁10.132.	-11.0253
}'"'"'	-11.0261
586/	-11.027
9_1	-11.0271
9794/	-11.0278
1",1	-11.028
_2=41	-11.0285
ho	-11.0285
87\"	-11.0287
▁10.25.	-11.0287
58\",	-11.0289
4.87	-11.0291
692	-11.03
12930	-11.0303
83.1	-11.0303
/399	-11.0304
/394	-11.0321
/144	-11.0327
3_2,	-11.0342
/383	-11.0352
,"10.10	-11.0356
oun	-11.036
54";	-11.0369
4/8888	-11.037
("127.0.0.1",38	-11.0382
157.	-11.0395
440	-11.0399
("10.4.1	-11.0407
("10.131.	-11.0423
543/	-11.0428
ppegbl	-11.0431
22\",	-11.0432
('10.6	-11.0445
($4	-11.0475
471/	-11.0479
801/	-11.0482
5545	-11.0486
/0/10.16	-11.0493
581	-11.0518
376	-11.0523
gd	-11.0547
5_2,	-11.0552
12\	-11.0571
8",8000);	-11.0588
44\"	-11.0593
/251	-11.0593
7.24	-11.0596
420	-11.0605
10",	-11.0607
▁mn	-11.0617
/0/10.24	-11.062
696	-11.0625
4",443);	-11.0626
262/	-11.0628
537	-11.0631
/10.122.	-11.0645
394/	-11.0659
:22	-11.0669
=\"641	-11.067
ipcdpa	-11.0675
/0/10.17	-11.068
_1="10.5	-11.0688
4_1);$	-11.0691
("10.15	-11.0714
uud	-11.0716
2347	-11.0726
251.	-11.0743
/10.10	-11.0747
490	-11.0749
94.20	-11.0751
91.2	-11.0777
=\"56	-11.0787
47\"	-11.0795
bw	-11.0803
303	-11.0804
("10.240.2	-11.0822
",443);`/	-11.0861
1","	-11.0863
649	-11.0869
/10.16	-11.0874
/326	-11.0876
/377	-11.0888
683/	-11.0905
60\",	-11.0914
0/9001	-11.0921
615/	-11.0925
_1="10.22	-11.0952
53\"	-11.0959
/317	-11.0993
138/	-11.0993
1_2,	-11.1009
154/	-11.1018
76\",	-11.1022
1";$	-11.1024
531/	-11.1033
/742	-11.1049
86\",	-11.1049
242/	-11.1051
101/	-11.1073
/759	-11.1076
mu	-11.1085
4993	-11.1094
.171	-11.1109
/328	-11.1112
2880	-11.1115
23\"	-11.1129
7.8	-11.1156
32\",	-11.1181
3851	-11.1185
9",8080);	-11.1186
63.2	-11.1193
','5	-11.1206
/10.19	-11.1247
70;	-11.1259
594	-11.1267
231/	-11.128
223/	-11.129
/329	-11.13
24;	-11.1307
624	-11.131
/17/	-11.1314
",8080);$	-11.1337
7",9001)	-11.1338
4_2);	-11.1354
78.	-11.1359
217/	-11.1379
2",22);	-11.1381
("10.102.	-11.1399
.195	-11.1401
466	-11.1436
224/	-11.1439
141/	-11.1458
917	-11.1466
${	-11.1474
592/	-11.1486
▁200	-11.149
/253	-11.1501
/10.14	-11.1523
","35	-11.1551
ftp	-11.1551
/340	-11.1565
("10.78.	-11.1577
26.10	-11.1608
706	-11.1627
_1="10.11	-11.1649
1/8000	-11.165
('10.24	-11.1662
37\"	-11.1663
008	-11.1726
676	-11.1746
413	-11.175
/88	-11.1803
.175	-11.1815
▁10.24	-11.186
5906	-11.1881
668	-11.1915
730	-11.1937
960/	-11.195
=\"1690834	-11.1953
/260	-11.1966
182.1	-11.1967
0.0	-11.199
8','	-11.1993
.240	-11.1999
/314	-11.2004
/273	-11.2031
523/	-11.2063
772/	-11.2077
211/	-11.2087
/397	-11.21
750	-11.2129
9.11	-11.213
('10.12	-11.2133
973	-11.2164
/154	-11.2173
/311	-11.2196
739/	-11.2202
/157	-11.2213
982/	-11.2215
1.19	-11.2259
.136	-11.2315
0.23	-11.2327
5.170	-11.2329
956/	-11.2389
0.130	-11.2507
8.21	-11.2515
=\"1690836	-11.2519
("10.240.	-11.2523
=\"821	-11.2525
3",2	-11.2543
9.5	-11.2546
203.2	-11.2575
43.1	-11.2577
611	-11.2602
169/	-11.2614
084	-11.2647
75\",	-11.2671
▁10.158.1	-11.27
149/	-11.2702
0.28.	-11.2714
896/	-11.2718
825	-11.2723
586	-11.2734
/220	-11.2774
/10.130.	-11.2774
778	-11.2783
.237.1	-11.2801
6034	-11.2814
13",	-11.2821
73.18	-11.2824
63\",	-11.2829
349	-11.2842
127.0.0.1",8888)	-11.2855
870	-11.2863
▁"01"	-11.2877
234	-11.2912
542/	-11.2929
5.145	-11.2942
/257	-11.2958
26.22	-11.301
mg	-11.3019
ug	-11.3026
47.1	-11.3078
4648	-11.3112
",8080);`	-11.3119
ation	-11.3165
623/	-11.318
242.1	-11.319
/127.0.0.1/9001	-11.32
=\"1690842	-11.3202
43";	-11.3222
",8888);`/	-11.3229
/10.56.1	-11.325
",50	-11.331
0446	-11.331
80\"	-11.3314
890/	-11.332
10.222.	-11.3324
30\",	-11.3339
42.23	-11.3356
/337	-11.3364
.62.1	-11.3372
=\"16908427	-11.3377
102.2	-11.3381
/127.0.0.1/22	-11.3389
",22);$	-11.3396
18\"	-11.3399
▁10.53.	-11.3407
/10.138.	-11.3408
=\"16908340	-11.341
873/	-11.3412
_1="10.21	-11.3428
176.2	-11.3431
▁10.121.	-11.3431
/308	-11.3433
▁10.225.1	-11.3434
("10.249.	-11.3435
44.23	-11.3441
ource	-11.3441
=\"16908450	-11.3441
3647738	-11.3441
::---	-11.3441
/10.188.	-11.3441
5.139.1	-11.3441
3573692	-11.3441
3643242	-11.3441
2674115	-11.3441
2.191.1	-11.3441
2298670	-11.3442
3611543	-11.3442
▁10.42.	-11.3442
=\"16908373	-11.3442
("10.129.1	-11.3442
HEA	-11.3442
=\"902	-11.3442
220.2	-11.3442
("10.156.	-11.3442
("10.56.	-11.3442
("10.53.	-11.3442
("10.222.2	-11.3442
config	-11.3442
=\"1057	-11.3442
_1="10.250.	-11.3442
_1="10.147.	-11.3443
/10.175.	-11.3443
▁10.104.1	-11.3443
("10.35.	-11.3443
168.7	-11.3443
7.124.	-11.3444
▁10.187.	-11.3444
/10.139.	-11.3444
/10.239.1	-11.3444
/10.51.1	-11.3444
▁10.44.2	-11.3445
/1621	-11.3445
▁10.123.	-11.3445
▁10.40.	-11.3445
▁10.113.	-11.3445
▁10.131.	-11.3445
("10.142.	-11.3445
738211	-11.3446
("10.34.	-11.3446
2406208	-11.3446
("10.94.	-11.3446
4.254	-11.3446
3.141	-11.3447
/10.42.	-11.3447
122.2	-11.3447
("10.252.1	-11.3447
208.18	-11.3448
0','80	-11.3448
9.210	-11.3449
mem	-11.3449
.91:	-11.345
/3808	-11.345
.208.3	-11.345
=\"16908377	-11.345
/10.45.	-11.3453
/0/10.21	-11.3456
/2848	-11.3457
26.113	-11.3457
8.251	-11.3457
52.20	-11.3458
9616	-11.3459
/10.91.	-11.3459
=\"169083137	-11.3459
3.168	-11.346
=\"1048	-11.346
=\"16908376	-11.3461
=\"668	-11.3461
205.21	-11.3462
/3342	-11.3462
("10.224.	-11.3463
("10.194.1	-11.3464
7.127	-11.3464
=\"16908360	-11.3464
("10.144.	-11.3464
41",5	-11.3465
=\"16908428	-11.3466
▁10.143.	-11.3467
=\"16908353	-11.3469
/0/10.18	-11.3469
168.14	-11.3469
3/9001	-11.347
5956	-11.3471
▁10.129.	-11.3471
/1985	-11.3473
/1299	-11.3474
/2131	-11.3474
=\"16908399	-11.3475
3.140	-11.3475
/1626	-11.3475
/10.61.1	-11.3476
87\",	-11.3476
/10.52.	-11.3476
00";	-11.3477
("10.201.	-11.3477
08\"	-11.3479
=\"16908323	-11.348
/10.34.	-11.3481
account	-11.3481
7/443;	-11.3482
=\"16908338	-11.3483
omm	-11.3484
39.5	-11.3484
("10.151.2	-11.3486
("10.190.	-11.3486
,"10.61.	-11.3488
/327	-11.3488
2.35	-11.3488
("127.0.0.1",34	-11.3488
("10.177.	-11.3489
/3492	-11.3489
67";$	-11.3489
("10.99.1	-11.3489
=\"16908429	-11.349
/278	-11.349
("10.242.	-11.3491
/3677	-11.3494
=\"16908440	-11.3497
47";$	-11.3498
173.1	-11.3498
4400	-11.35
=\"83	-11.3501
093;	-11.3503
/2482	-11.3504
/653	-11.3505
=\"16908355	-11.3505
('127.0.0.1','44	-11.3506
▁10.98.	-11.3506
/322	-11.3507
/120	-11.3508
('10.171.1	-11.3509
=\"16908361	-11.3509
8284	-11.3511
/841	-11.3511
7.188	-11.3514
589\",	-11.3514
_2=33	-11.3514
▁10.185.	-11.3518
/0/10.20	-11.3519
",335	-11.3526
/1258	-11.3527
8.67	-11.3527
=\"48	-11.3528
/2403	-11.3534
/3114	-11.3538
/385	-11.3541
9.178.2	-11.3542
1455	-11.3547
=\"535	-11.3551
▁463	-11.3553
1897	-11.3553
=\"99	-11.3554
/1733	-11.3555
=\"16908362	-11.3557
59\"	-11.356
_2=30	-11.3563
30290	-11.3564
477	-11.3568
/406	-11.3572
0475/	-11.3575
/10.158.	-11.3575
4564	-11.3575
("10.103.	-11.3581
("10.237.	-11.3581
("10.245.	-11.3583
/3615	-11.3588
10.132.16	-11.359
▁10.64.	-11.3591
5622	-11.3593
22);`/	-11.3595
5686	-11.3598
▁10.94.1	-11.3603
("10.23.1	-11.3607
9397	-11.3616
464/	-11.3616
/415	-11.362
=\"16908407	-11.3622
("10.198.1	-11.3626
/974	-11.3627
4603	-11.3631
86\"	-11.3634
▁175	-11.3634
201/	-11.3638
3886	-11.364
/250	-11.3641
("10.65.1	-11.3642
/1323	-11.3642
▁10.246.	-11.3647
75\"	-11.3653
16\",	-11.3655
31);`	-11.3655
58.223	-11.3658
5559	-11.3662
platform	-11.3667
6.43.	-11.3669
3200	-11.3676
=\"16908393	-11.3678
3",9001);$	-11.3681
/2803	-11.3681
/3874	-11.3684
43\"	-11.3685
/1960	-11.3688
691/	-11.3689
10.107.14	-11.3694
5/80	-11.3695
igh	-11.3696
988	-11.3696
04);	-11.3704
("10.133.	-11.3707
1992	-11.3708
=\"16908413	-11.3712
.33:	-11.3716
7",80))	-11.3717
/418	-11.3717
0.164	-11.3721
35\"	-11.3723
cation	-11.373
3075	-11.373
2/8080;	-11.3733
9126	-11.3737
('10.7	-11.3748
▁10.3	-11.3749
=\"16908414	-11.3753
4197	-11.3754
8000"	-11.3762
/405	-11.3772
.151",22);	-11.3774
=\"16908318	-11.3774
/10.62.	-11.3778
7.15	-11.3779
1.69.	-11.3787
72.20	-11.3791
851/	-11.3792
/127.0.0.1/6	-11.3792
4006	-11.3793
("10.164.	-11.3802
20.4	-11.3803
5595	-11.3804
'"'"''	-11.3805
/0/127.0.0.1/4	-11.3805
/10.191.	-11.3808
2.73	-11.3817
/2406	-11.382
720	-11.3827
685	-11.3829
/3228	-11.3838
('10.16	-11.3843
1478	-11.3857
713/	-11.3863
1943	-11.3865
=\"17	-11.3873
/2942	-11.3893
"127.0.0.1",443)	-11.3901
2.243.	-11.3905
=\"16908417	-11.3912
=\"675	-11.3913
/346	-11.3914
/935	-11.3922
/297	-11.3922
429/	-11.393
('10.14	-11.3931
.197	-11.3938
240/	-11.3938
/3913	-11.3944
2046	-11.3944
46.10	-11.3963
92.24	-11.3968
93);	-11.3978
4039	-11.3983
=\"1047	-11.3983
/332	-11.3989
/305	-11.399
('10.21	-11.3995
/0/10.15	-11.3998
84";	-11.4004
/214	-11.4008
/265	-11.404
=\"16908419	-11.4042
("127.0.0.1",6	-11.4045
/262	-11.4047
10.77.	-11.4053
10640	-11.4079
77);	-11.4086
8.102	-11.4095
254	-11.4115
5464	-11.4115
/1048	-11.413
▁sm	-11.4139
/309	-11.4145
/3159	-11.4157
0051	-11.4158
,"10.23	-11.4159
Hea	-11.4169
2699	-11.4178
.83",	-11.4182
(0=>$5	-11.4185
▁1=>$5	-11.4185
▁2=>$5	-11.4191
=\"16908328	-11.4192
=\"16908391	-11.4221
.214",	-11.4221
509/	-11.4223
8",80);	-11.4237
/10.206.	-11.4283
159/	-11.4299
▁((8	-11.43
='2	-11.431
73\",	-11.4328
:11	-11.4336
/127.0.0.1/2	-11.435
8);`/	-11.4368
("10.206.	-11.437
78\",	-11.4387
4_1);	-11.4395
69\"	-11.4408
3511	-11.4414
/271	-11.4422
5",80);	-11.4422
161/	-11.4426
/0/10.23	-11.4449
1761	-11.4458
▁$4	-11.4489
214/	-11.4493
/679	-11.4516
("10.178.	-11.4519
0754	-11.452
10.176.	-11.4534
=\"987	-11.4544
.194	-11.4547
=\"37	-11.4559
/2637	-11.4559
1647	-11.4585
/567	-11.4603
3.180	-11.4618
=\"16908312	-11.4621
/2091	-11.4692
895	-11.4731
84.22	-11.4747
31\",	-11.4753
266	-11.4754
6218	-11.4759
640/	-11.4781
00;	-11.4797
07\"	-11.4799
9181	-11.4805
3750	-11.482
0400	-11.4825
("10.158.	-11.4826
480	-11.4831
157/	-11.4834
/660	-11.4844
1267	-11.485
698/	-11.4851
9957	-11.4851
/345	-11.4857
786/	-11.4872
17886	-11.4883
3/8080	-11.4894
("10.76.	-11.49
2953	-11.49
/215	-11.4904
6056	-11.491
1079	-11.4916
29.10	-11.4922
6351	-11.4935
667/	-11.4939
9780	-11.4957
607/	-11.4959
555	-11.497
/354	-11.4979
0",22);	-11.5013
/0/10.10	-11.5036
("127.0.0.1",26	-11.5037
322/	-11.5041
85.5	-11.5071
5033	-11.51
5.89.1	-11.5105
139/	-11.5113
3048	-11.5114
/2672	-11.5114
▁10.25	-11.514
/4139	-11.5141
1432	-11.5151
("10.22	-11.5158
/422	-11.5233
/3401	-11.5239
74";	-11.5267
862/	-11.5277
5",4	-11.5288
528/	-11.5332
357/	-11.5347
1750	-11.5357
598/	-11.537
4);`	-11.5376
/0/10.19	-11.5396
694	-11.5419
("10.72.1	-11.5428
946	-11.5474
=\"1690839	-11.5478
947/	-11.5485
("10.44.	-11.551
8786	-11.5511
095	-11.5517
10.182.	-11.5524
1469	-11.553
246.1	-11.5549
400/	-11.5561
31.14	-11.5595
210/	-11.5602
115/	-11.5641
401/	-11.566
lling	-11.5667
/150	-11.567
8.173	-11.5731
3552	-11.5747
("10.95.	-11.5748
162.	-11.5749
▁10.136.	-11.5818
7041	-11.582
▁10.219.1	-11.5827
▁10.11	-11.5836
7);`	-11.5839
,"10.9	-11.5848
22.7	-11.5863
17.2	-11.5889
397	-11.5894
/818	-11.5908
117.2	-11.5936
43",43	-11.595
/0/10.163.	-11.5966
8043	-11.5969
/0/10.5	-11.5978
("10.173.1	-11.5996
117.1	-11.6022
/217	-11.605
/651	-11.6056
226.1	-11.6106
/137	-11.6124
67.6	-11.6125
=\"1690838	-11.6147
219.2	-11.6148
/256	-11.6153
/481	-11.6156
('10.4	-11.6163
=\"818	-11.6212
13907	-11.6228
("10.17.16	-11.6231
/390	-11.6263
/1922	-11.6289
2974	-11.6318
9.57	-11.6323
7277	-11.6335
1095	-11.6362
▁297	-11.6368
38);	-11.642
▁10.209.	-11.6449
888/	-11.6454
=\"69	-11.6463
083/	-11.6524
06.16	-11.6526
0.99	-11.654
("10.202.	-11.6544
6445	-11.6549
8852	-11.6561
/395	-11.6569
2991	-11.661
1618	-11.6635
6);`	-11.665
/231	-11.6771
51.2	-11.6784
2734	-11.6807
0.180.	-11.6812
6.157	-11.6851
91\"	-11.6856
876	-11.6883
/561	-11.6925
/2335	-11.6932
2197	-11.6939
4/9001	-11.6956
=\"98	-11.6958
('10.11	-11.697
48.4	-11.6972
098/	-11.698
10.76.2	-11.6991
047	-11.7012
=\"16908389	-11.7045
10.177.	-11.7094
1.175	-11.7105
9.142	-11.7109
4','	-11.7122
72.1	-11.7132
156/	-11.715
7305	-11.7155
/10.234.	-11.7162
9828	-11.723
2484	-11.7239
021	-11.727
4",22);	-11.7303
/10.193.	-11.7311
185.1	-11.7313
63\"	-11.7326
3);`/	-11.7354
5038	-11.7361
/1037	-11.7379
1914	-11.746
▁10.174.	-11.7484
4609	-11.7487
.90",	-11.7498
▁10.191.	-11.7529
563/	-11.7536
("10.8.1	-11.7555
38","	-11.7558
57;	-11.7568
("10.166.	-11.7579
=\"29	-11.7586
7455	-11.7587
10.102.2	-11.7591
749/	-11.7591
/147	-11.7602
/10.76.	-11.7615
2023	-11.7654
=\"104	-11.766
.193",	-11.7676
/156	-11.7687
9.80	-11.7693
10.109.	-11.7694
1569	-11.7709
1937	-11.7715
.153",	-11.7729
583/	-11.7733
("10.107.	-11.7736
5",9001);	-11.7743
8.112	-11.775
0.95	-11.7753
4.60	-11.7777
3.16	-11.7798
7/8888	-11.783
1.245	-11.7854
("10.207.	-11.7855
423/	-11.7856
8/80	-11.7871
gbl	-11.7876
("10.163.	-11.7975
1064	-11.7978
/403	-11.7984
6463	-11.7985
7.118	-11.7994
/127.0.0.1/8080	-11.8
/621	-11.8024
4250	-11.8041
571	-11.8059
/375	-11.8061
▁10.65.	-11.8071
3.172	-11.8088
("10.204.	-11.8092
1.65	-11.812
99.1	-11.8129
/3127	-11.8144
/10.55.1	-11.8144
/10.166.1	-11.8144
85);	-11.8154
5.57.	-11.816
43);`	-11.8161
/127.0.0.1/8888	-11.8176
176/	-11.8177
leaner	-11.8186
2.148	-11.8202
26.2	-11.8208
4722	-11.8212
0.82.	-11.8219
.123",	-11.8225
4.251	-11.8227
97.18	-11.8232
▁10.166.	-11.8261
("10.217.	-11.8262
0.76.2	-11.8266
3503	-11.8297
5768	-11.8302
2955	-11.8302
10\"	-11.8302
"10.62.6	-11.8313
▁10.150.	-11.8314
▁10.49.	-11.8321
("10.110.1	-11.8324
_1="10.25	-11.8324
/127.0.0.1/443	-11.8329
/10.132.1	-11.8331
07.13	-11.8335
/10.207.	-11.8335
/127.0.0.1/8000	-11.8335
783	-11.8336
171.19	-11.834
▁10.235.	-11.8353
=\"16908396	-11.8362
("10.108.	-11.8373
0.84	-11.8376
("10.151.	-11.8377
249.17	-11.8382
2.190	-11.8383
6.232.	-11.8385
122\"	-11.8388
8.223.1	-11.8388
3.202.	-11.839
875/	-11.8393
46.21	-11.8394
=\"16908315	-11.8394
"10.247.	-11.8397
57.13	-11.8398
/10.157.	-11.8407
("10.66.	-11.8408
/3481	-11.8409
46.25	-11.841
18.10	-11.8414
/10.195.	-11.8415
76.16	-11.8417
1.160.	-11.8418
576543	-11.8419
3.69	-11.8421
3.89	-11.8422
10471/	-11.8424
.205",	-11.8429
("10.221.	-11.8429
10.168.	-11.843
=\"16908379	-11.8433
▁10.210.	-11.8433
.65.1	-11.8438
10.196.	-11.8439
("10.153.1	-11.844
210.11	-11.844
,"10.139.1	-11.844
9.195.82	-11.8441
,"10.134.	-11.8441
"10.84.129.129"	-11.8441
1.37:	-11.8441
.95.189	-11.8441
"10.116.151.68"	-11.8441
"10.12.57.156"	-11.8441
"10.131.16.162"	-11.8441
"10.131.48.211"	-11.8441
"10.140.30.56"	-11.8441
"10.151.54.161"	-11.8441
"10.188.246.221"	-11.8441
"10.203.127.158"	-11.8441
"10.208.108.44"	-11.8441
"10.21.161.87"	-11.8441
"10.39.133.48"	-11.8441
"10.41.17.182"	-11.8441
"10.50.132.192"	-11.8441
"10.59.186.46"	-11.8441
"10.65.140.48"	-11.8441
"10.66.157.180"	-11.8441
"10.134.116.102"	-11.8441
"10.183.50.192"	-11.8441
"10.51.185.167"	-11.8441
"10.80.164.77"	-11.8441
"10.87.22.38"	-11.8441
"10.90.47.113"	-11.8441
("10.159.10	-11.8441
("10.64.2	-11.8441
.215:	-11.8441
10.115.12	-11.8441
38966	-11.8441
("10.215.1	-11.8441
.54",8080);	-11.8441
36.26	-11.8441
notification	-11.8441
0.56.1	-11.8441
.145",443))	-11.8441
("10.80.18	-11.8441
/0/10.8.9	-11.8441
/10.178.17	-11.8441
10.226.203.	-11.8441
8.250.11	-11.8441
92.178.	-11.8441
=\"25218	-11.8441
"10.111.103.20"	-11.8441
"10.140.91.172"	-11.8441
"10.142.123.154"	-11.8441
"10.148.12.191"	-11.8441
"10.18.141.22"	-11.8441
"10.181.23.52"	-11.8441
"10.205.166.75"	-11.8441
"10.213.140.124"	-11.8441
"10.213.230.125"	-11.8441
"10.214.103.175"	-11.8441
"10.226.129.155"	-11.8441
"10.228.16.44"	-11.8441
"10.238.207.206"	-11.8441
"10.246.48.146"	-11.8441
"10.25.16.14"	-11.8441
"10.250.40.94"	-11.8441
"10.35.59.191"	-11.8441
"10.56.148.188"	-11.8441
"10.61.130.158"	-11.8441
"10.8.210.211"	-11.8441
/10.126.21	-11.8441
/10.187.12	-11.8441
/127.0.0.1/448	-11.8441
108.176/	-11.8441
3237540	-11.8441
9.55.218/	-11.8441
_1="10.182.23	-11.8441
05.93.1	-11.8441
"10.154.91.111"	-11.8441
"10.159.74.213"	-11.8441
"10.185.209.214"	-11.8441
"10.187.185.130"	-11.8441
"10.236.116.33"	-11.8441
"10.237.214.177"	-11.8441
"10.48.73.131"	-11.8441
"10.50.88.22"	-11.8441
"10.69.167.183"	-11.8441
"10.75.11.155"	-11.8441
"10.82.245.66"	-11.8441
"10.90.248.52"	-11.8441
("10.254.22	-11.8441
,"10.59.	-11.8441
.157",8080)	-11.8441
/10.202.1	-11.8441
242.211	-11.8441
305);`/	-11.8441
3515687	-11.8441
5546);	-11.8441
7.112.11	-11.8441
MONITOR	-11.8441
SUCCE	-11.8441
_1="10.151.1	-11.8441
application	-11.8441
azure	-11.8441
jmzg	-11.8441
▁10.130.211.	-11.8441
872501	-11.8441
▁10.178.3	-11.8441
▁EndTime	-11.8441
"10.54.58.22"	-11.8441
("10.222.11	-11.8441
.127",6	-11.8441
/10.106.7	-11.8441
/10.60.2	-11.8441
/19407	-11.8441
/33938	-11.8441
0.145.243	-11.8441
1670869	-11.8441
21.210	-11.8441
3524423	-11.8441
87371/	-11.8441
=\"311189	-11.8441
/39240	-11.8441
▁10.173.24	-11.8441
10.93.206.	-11.8441
.216","	-11.8441
.74.188	-11.8441
/194225	-11.8441
/34448	-11.8441
22679	-11.8441
26041	-11.8441
3544415	-11.8441
:5444	-11.8441
.179.14	-11.8441
10.48.184.1	-11.8441
3055662	-11.8441
35880	-11.8441
("10.228.7	-11.8441
/10.150.19	-11.8441
7.216.2	-11.8441
/324519	-11.8441
"10.101.165.109"	-11.8441
"10.115.151.253"	-11.8441
"10.129.117.29"	-11.8441
"10.133.147.21"	-11.8441
"10.134.41.240"	-11.8441
"10.14.205.145"	-11.8441
"10.142.16.96"	-11.8441
"10.194.126.140"	-11.8441
"10.195.210.232"	-11.8441
"10.202.253.131"	-11.8441
"10.235.113.129"	-11.8441
"10.36.10.24"	-11.8441
"10.46.77.117"	-11.8441
"10.52.186.136"	-11.8441
"10.62.140.37"	-11.8441
"10.68.182.184"	-11.8441
"10.86.83.179"	-11.8441
"10.97.223.28"	-11.8441
2854019	-11.8441
"10.236.59.1"	-11.8441
"10.33.234.164"	-11.8441
"10.76.163.105"	-11.8441
"10.98.178.240"	-11.8441
("10.176.19	-11.8441
("4634_	-11.8441
.168","	-11.8441
.212",443);	-11.8441
/29658	-11.8441
/404491	-11.8441
27.122	-11.8441
4.146.6	-11.8441
4.94.1	-11.8441
▁10.159.24	-11.8441
3305528	-11.8441
/23577	-11.8441
/28259	-11.8441
/392117	-11.8441
12.189.2	-11.8441
59971	-11.8441
7.224	-11.8441
8.172",	-11.8441
93.245.	-11.8441
/10.226.5	-11.8441
("10.228.4	-11.8441
19.187"	-11.8441
2198881	-11.8441
4.140",	-11.8441
5.143",9001)	-11.8441
550372	-11.8441
7",126	-11.8441
9.16",1	-11.8441
=\"95825	-11.8441
8.106.	-11.8441
▁10.180.14	-11.8441
"10.234.192.178"	-11.8441
07.90.	-11.8441
1",28	-11.8441
"10.199.201.52"	-11.8442
"10.202.165.33"	-11.8442
"10.216.31.249"	-11.8442
"10.241.188.146"	-11.8442
"10.75.226.184"	-11.8442
/127.0.0.1/45	-11.8442
183.24	-11.8442
57832	-11.8442
47.211	-11.8442
"10.1.245.63"	-11.8442
"10.147.198.149"	-11.8442
"10.153.29.52"	-11.8442
"10.232.171.209"	-11.8442
08.117	-11.8442
1624823	-11.8442
186.82	-11.8442
7.248.13	-11.8442
87","2	-11.8442
1.156	-11.8442
35070	-11.8442
",1765	-11.8442
2.250.1	-11.8442
56447	-11.8442
8.95.4	-11.8442
65293	-11.8442
▁10.170.254.	-11.8442
("10.109.17	-11.8442
/10.250.	-11.8442
1183947	-11.8442
1645190	-11.8442
26395	-11.8442
44.134.2	-11.8442
942452	-11.8442
=\"1073	-11.8442
=\"1690835628\"	-11.8442
=\"1690841949\"	-11.8442
=\"219887	-11.8442
/162481	-11.8442
20129	-11.8442
23117	-11.8442
35977	-11.8442
51.117	-11.8442
1134014	-11.8442
=\"7882	-11.8442
_1="10.166.	-11.8442
,"10.65.	-11.8442
.39",53)	-11.8442
35058	-11.8442
36.150	-11.8442
38.165	-11.8442
=\"16908309	-11.8442
=\"1690839118\"	-11.8442
6.215.16	-11.8442
=\"1690839153\"	-11.8442
,18058)	-11.8442
/0/10.132.1	-11.8442
/0/10.213.1	-11.8442
13);`	-11.8442
3.85",	-11.8442
4.106.10	-11.8442
5.33.2	-11.8442
60457	-11.8442
▁10.74.	-11.8442
kkoo	-11.8442
▁10.0.7	-11.8442
("10.139.1	-11.8442
/10.5.1	-11.8442
2.12.1	-11.8442
47847	-11.8442
huq	-11.8442
($9349_2,	-11.8442
3235339	-11.8442
44",15	-11.8442
8.90/4	-11.8442
_1="10.169.1	-11.8442
xans	-11.8442
/24768	-11.8442
2645531	-11.8442
zqug	-11.8442
27713	-11.8442
/10.68.	-11.8442
/383033	-11.8442
odxf	-11.8442
▁10.173.9	-11.8442
62.24	-11.8442
("10.46.17	-11.8442
.51.156"	-11.8442
/10.246.	-11.8442
035);	-11.8442
10.128.45.	-11.8442
3338561	-11.8442
34866	-11.8442
7.140.	-11.8442
parser	-11.8442
▁10.197.	-11.8442
rzgo	-11.8442
33.206	-11.8442
99.33	-11.8442
("10.168.1	-11.8442
("10.40.17	-11.8442
/0/10.218.	-11.8442
10.97.85	-11.8442
239.24	-11.8442
/10.141.20	-11.8442
7.208.7	-11.8442
/22694	-11.8442
170.253	-11.8442
2",331	-11.8442
_1="10.101.14	-11.8442
/10.32.	-11.8442
"10.165.209.137"	-11.8442
$7165_2	-11.8442
.85",22);`/	-11.8442
=\"940	-11.8442
96.20	-11.8442
_1="10.63.	-11.8442
('10.189.2	-11.8442
/0/10.147.	-11.8442
/10.145.8	-11.8442
/7538	-11.8442
/97990	-11.8442
787);	-11.8442
2482310	-11.8442
5.163.19	-11.8443
/10.232.23	-11.8443
181);$	-11.8443
60963	-11.8443
_1="10.65.	-11.8443
("10.138.9	-11.8443
",392	-11.8443
("10.47.2	-11.8443
.189.197	-11.8443
/0/10.86.	-11.8443
50.202	-11.8443
_1="10.64.	-11.8443
6.76.1	-11.8443
▁10.7.14	-11.8443
47.198	-11.8443
/1850	-11.8443
8329/	-11.8443
_1="10.105.1	-11.8443
/14639	-11.8443
19.55.1	-11.8443
=\"1690832550\"	-11.8443
("10.115.13	-11.8443
("10.167.2	-11.8443
("10.192.2	-11.8443
9.255",	-11.8443
▁10.57.13	-11.8443
/31372	-11.8443
10.174.104.	-11.8443
29644	-11.8443
89.65	-11.8443
▁10.140.13	-11.8443
/24285	-11.8443
/19438	-11.8443
▁10.238.1	-11.8443
213.22	-11.8443
50.25	-11.8443
_1="10.42.	-11.8443
.111','	-11.8443
250.14	-11.8443
8768);	-11.8443
.43/80	-11.8443
120.74	-11.8443
28345	-11.8443
/5287/	-11.8443
.210/9001	-11.8443
/10.226.7	-11.8443
("10.54.2	-11.8443
10.235.10	-11.8443
/10.35.	-11.8443
dfff	-11.8443
jpz	-11.8443
640583	-11.8443
/3239	-11.8443
/38964	-11.8443
6407	-11.8443
▁10.243.	-11.8443
/39079	-11.8443
28876	-11.8443
/1634	-11.8444
8.120	-11.8444
/4358	-11.8444
3.135.1	-11.8444
84.12	-11.8444
,"10.125.	-11.8444
/8847/	-11.8444
28850	-11.8444
.170";$	-11.8444
/11235	-11.8444
6.42",	-11.8444
7.92.	-11.8444
53288	-11.8444
.96.128','	-11.8444
16.47	-11.8444
▁10.227.1	-11.8444
20.154	-11.8444
/1391	-11.8444
10.141.193.	-11.8444
7.166",	-11.8444
893529	-11.8444
("10.75.	-11.8444
/31366	-11.8444
36",1	-11.8444
atbd	-11.8444
10.233.117.2	-11.8444
▁10.114.1	-11.8444
205362	-11.8444
/10.37.1	-11.8444
7.168.2	-11.8444
("10.7.18	-11.8444
clean	-11.8445
79.88	-11.8445
"10.206.20.127"	-11.8445
10.118.52.	-11.8445
6.54.	-11.8445
_1="10.47.	-11.8445
▁10.34.	-11.8445
/10.64.	-11.8445
_1="10.243.	-11.8445
/19165	-11.8445
/0/10.192.	-11.8445
$5517_2	-11.8445
59.153	-11.8445
,"10.88.	-11.8445
188.21	-11.8445
264);	-11.8445
8",29	-11.8445
28.157.1	-11.8445
.220",80	-11.8445
9.188/	-11.8445
/1885	-11.8445
1858/	-11.8445
/32703	-11.8445
▁10.50.3	-11.8445
/10.255.	-11.8445
("10.123.14	-11.8445
("10.164.18	-11.8445
15.155	-11.8445
21.41	-11.8445
=\"169084300	-11.8445
acti	-11.8445
bgnk	-11.8445
64.59	-11.8445
▁10.252.2	-11.8445
20885	-11.8445
▁10.92.1	-11.8445
/6514/	-11.8445
22.109.	-11.8445
13.59	-11.8445
32.130	-11.8445
/12679	-11.8445
.125/5	-11.8446
8','28	-11.8446
=\"169083482	-11.8446
7.215.1	-11.8446
("10.106.	-11.8446
_2=2009	-11.8446
/10.63.	-11.8446
37103	-11.8446
6418	-11.8446
/13445	-11.8446
5.239.1	-11.8446
.101.5	-11.8446
/7421/	-11.8446
0",8080);`/	-11.8446
=\"169084231	-11.8446
/10.144.	-11.8446
/6322	-11.8446
_1="10.162.	-11.8446
/219887	-11.8446
158.11	-11.8446
2843/	-11.8446
3.119	-11.8446
▁10.199.	-11.8446
.164:	-11.8446
▁10.203.2	-11.8446
.58/22;	-11.8446
244059	-11.8446
tctf	-11.8446
/10.78.	-11.8447
_1="10.133.	-11.8447
3.43.	-11.8447
("10.82.2	-11.8447
.118","80	-11.8447
3.92.	-11.8447
lzms	-11.8447
",403	-11.8447
.47/9001	-11.8447
.158","	-11.8447
25603	-11.8447
.15",5	-11.8447
/3797	-11.8447
_1="10.131.	-11.8447
/10.47.	-11.8447
2.161	-11.8447
/9808	-11.8447
105);	-11.8447
6",8000);$	-11.8448
("10.176.9	-11.8448
("10.93.	-11.8448
/36058	-11.8448
/0/10.74.1	-11.8448
155",22);	-11.8448
77.162",	-11.8448
("10.137.1	-11.8448
/2775	-11.8448
26/9001	-11.8448
/3534	-11.8448
3.144.	-11.8448
/7425/	-11.8448
/10.240.54.	-11.8448
/7734	-11.8448
8.190",9001);	-11.8448
("10.5.9	-11.8448
▁10.226.1	-11.8448
4.114.131	-11.8449
4.71.1	-11.8449
/10.237.	-11.8449
228.12	-11.8449
("10.145.1	-11.8449
6901/	-11.8449
▁10.130.1	-11.8449
("10.123.	-11.8449
/10.148.	-11.8449
=\"169083297	-11.8449
/35969	-11.8449
▁10.249.	-11.8449
▁10.101.	-11.8449
_1="10.76.1	-11.8449
138.6	-11.8449
/10.143.1	-11.8449
('10.54.	-11.8449
/10.79.	-11.8449
("10.221.20	-11.8449
("10.251.1	-11.8449
7.72.12	-11.8449
/1654	-11.8449
40.50.13	-11.8449
/0/10.178.2	-11.845
("10.181.	-11.845
▁10.193.	-11.845
/3788	-11.845
8362/	-11.845
▁10.214.	-11.845
_1="10.126.	-11.845
("10.189.	-11.845
9.64.2	-11.845
1",80);`	-11.845
4.171",	-11.845
('10.244.	-11.845
_1="10.137.	-11.845
("10.239.	-11.845
=\"169083293	-11.845
21864	-11.845
/10.41.5	-11.8451
/10.190.2	-11.8451
"10.53.23.1	-11.8451
50",8888);$	-11.8451
17086	-11.8451
8.226	-11.8451
90.24	-11.8451
82.12	-11.8451
12573/	-11.8451
/3960	-11.8451
6.48	-11.8452
.10",443);	-11.8452
/7786	-11.8452
=\"16908374	-11.8452
nax	-11.8452
("10.59.	-11.8452
=\"109	-11.8452
.137",2	-11.8452
6440/	-11.8452
/10229	-11.8452
_1="10.190.1	-11.8452
("10.237.19	-11.8452
=\"16908308	-11.8452
61.231	-11.8452
61.6	-11.8452
("10.216.	-11.8453
34",9001);	-11.8453
▁10.137.1	-11.8453
▁10.61.	-11.8453
/16821	-11.8453
.47.3	-11.8453
18.185	-11.8453
▁10.12.24	-11.8453
▁10.27.	-11.8453
20496	-11.8453
_2=430	-11.8453
/3791	-11.8453
("10.201.15	-11.8454
gmvc	-11.8454
/3725	-11.8454
/10.128.	-11.8454
("10.206.17	-11.8454
/3637	-11.8454
3934845	-11.8454
,"127.0.0.1:63	-11.8454
/4163	-11.8454
/5937	-11.8454
/3230	-11.8454
1.244.1	-11.8454
70.175	-11.8454
.179","	-11.8454
36682	-11.8454
=\"1019	-11.8454
("10.203.	-11.8455
9.158.10	-11.8455
_1="10.245.	-11.8455
100.143	-11.8455
3.234	-11.8455
.143/4	-11.8455
/3449	-11.8455
/10.249.	-11.8455
/39090	-11.8455
/3303	-11.8455
8.167	-11.8456
6.80	-11.8456
/1632	-11.8456
/1891	-11.8456
10.78.68.	-11.8456
8",8000);`	-11.8456
=\"169083115	-11.8456
/36271	-11.8456
▁10.149.	-11.8457
89.16	-11.8457
7.252	-11.8457
22.59.	-11.8457
=\"705	-11.8457
13621	-11.8457
▁10.116.	-11.8457
.243",8080);	-11.8457
7.93.	-11.8457
8454	-11.8457
3.74	-11.8458
/1327	-11.8458
=\"1690837968\"	-11.8458
("10.113.	-11.8458
0.214	-11.8458
/31728	-11.8458
3808);	-11.8458
/5166	-11.8459
("10.128.	-11.8459
/10.116.	-11.846
150/	-11.846
/3334	-11.846
935);	-11.846
7.176.	-11.846
16824	-11.846
31033	-11.8461
6.166	-11.8461
/3168	-11.8461
=\"169083649	-11.8461
▁2753	-11.8461
.47/80	-11.8461
0798	-11.8461
▁10.141.	-11.8461
51200	-11.8462
/1199	-11.8462
0782	-11.8462
10.225.101.1	-11.8462
/1684	-11.8462
53','80	-11.8462
/3448	-11.8463
/3204	-11.8463
/5195	-11.8463
9.176	-11.8463
9.97	-11.8463
4",65	-11.8463
83",443);	-11.8463
/1393	-11.8464
9.140.1	-11.8464
/2547	-11.8464
6.254	-11.8464
3829	-11.8464
20.200	-11.8464
/2545	-11.8464
6.143.3	-11.8465
/9820	-11.8465
("10.150.11	-11.8465
=\"169084106	-11.8465
240.10	-11.8465
("10.96.2	-11.8465
/576543/	-11.8465
("10.43.	-11.8466
6.107	-11.8466
6.17",	-11.8466
/3825	-11.8466
("10.146.21	-11.8466
73.15	-11.8467
/3255	-11.8467
66.107	-11.8467
=\"169083523	-11.8467
9409/	-11.8467
/3761	-11.8467
_1="10.17	-11.8467
0/8080	-11.8467
/39741	-11.8467
▁10.12.13	-11.8468
1.255";	-11.8468
/0/10.57.	-11.8468
/4191	-11.8468
31389	-11.8468
=\"169083571	-11.8468
14547	-11.8468
1675/	-11.8468
2.216	-11.8468
72.14	-11.8469
.177",8080)	-11.8469
6.147.	-11.8469
59.2	-11.8469
=\"25845	-11.847
▁10.76.1	-11.847
2","4	-11.847
("10.57.	-11.847
2796	-11.847
("10.219.	-11.847
▁1376	-11.8471
/2830	-11.8471
▁10.189.	-11.8471
3172	-11.8471
=\"169083143	-11.8471
8516	-11.8471
/2268	-11.8471
629/	-11.8471
"10.138.2.158"	-11.8471
_1="10.122.	-11.8472
/4093	-11.8472
210.136	-11.8472
/2898	-11.8472
86/443	-11.8472
("10.155.	-11.8472
72.10	-11.8472
("10.221.1	-11.8472
/10.241.2	-11.8473
/4492	-11.8473
=\"111	-11.8473
3954	-11.8473
7589/	-11.8473
2640230	-11.8473
5764	-11.8474
wuek	-11.8474
("10.233.	-11.8474
▁10.8.5	-11.8474
/17615	-11.8474
214.18	-11.8475
6981	-11.8475
/21705	-11.8475
_1="10.173.	-11.8475
9924	-11.8475
/2117	-11.8475
0.148	-11.8475
9729	-11.8475
30.9	-11.8476
10.46.25	-11.8476
=\"169084334	-11.8476
35404	-11.8476
_1="10.251.	-11.8476
/725	-11.8476
/9181/	-11.8477
/10.105.	-11.8477
65733	-11.8477
23205	-11.8477
/10.67.1	-11.8478
11659	-11.8478
storage	-11.8478
4",22);$	-11.8478
0975/	-11.8479
=\"169084267	-11.8479
/1017	-11.8479
ycb	-11.848
=\"169083459	-11.848
.217";$	-11.848
.185/4	-11.848
7:3	-11.848
("10.157.	-11.848
7846	-11.8481
13470	-11.8481
7/8000	-11.8482
303);$	-11.8482
/1933	-11.8482
▁500	-11.8482
("10.255.	-11.8483
224.242	-11.8483
",577	-11.8483
9",42	-11.8484
10.65.19	-11.8484
/10.28.2	-11.8484
10.92.5	-11.8484
20",443);	-11.8485
8:22	-11.8485
/2034	-11.8486
=\"39231	-11.8486
12802	-11.8486
ance	-11.8486
19.121	-11.8486
/127.0.0.1/17	-11.8487
/2529	-11.8487
23.62	-11.8487
/1738	-11.8487
/2497	-11.8488
1105626	-11.8488
02806	-11.8488
225.218	-11.8488
.161/6	-11.8489
8864/	-11.8489
/2736	-11.8489
/1780	-11.8489
=\"16908330	-11.849
11286	-11.849
▁625	-11.849
/1629	-11.849
/2108	-11.8491
70";$	-11.8491
590\",	-11.8491
4.64:	-11.8491
/5629	-11.8491
/1129	-11.8492
_2=520	-11.8492
4.158	-11.8492
138/53	-11.8492
/3660	-11.8492
1",443);$	-11.8493
/579	-11.8494
.197",53)	-11.8494
1/8080	-11.8494
18.3	-11.8494
6990/	-11.8494
=\"16908438	-11.8495
/2866	-11.8495
7.195	-11.8495
1","53	-11.8496
/528	-11.8496
/2844	-11.8496
10.183.1	-11.8496
42.22	-11.8496
9",8080);$	-11.8496
/2996	-11.8497
('10.76.	-11.8497
/3358	-11.8497
927;	-11.8497
/127.0.0.1/35	-11.8498
95.238	-11.8498
/1568	-11.8498
4.105.22	-11.8498
4945	-11.8498
6207/	-11.8499
/2821	-11.8499
14953	-11.8499
10.157.10	-11.8499
/10.88.1	-11.8499
_1="10.253.	-11.85
17600	-11.8501
▁10.33.1	-11.8502
246.13	-11.8503
=\"112	-11.8503
6533/	-11.8504
053\",	-11.8504
37","	-11.8504
/2937	-11.8505
▁6442	-11.8506
/10.133.1	-11.8506
/3990	-11.8507
16977	-11.8507
57.139	-11.8508
7.39",	-11.8508
72674	-11.8509
44.174	-11.8509
/10562	-11.8509
list	-11.8509
/10471	-11.8509
203\"	-11.851
1975	-11.851
=\"16908349	-11.8511
=\"16908336	-11.8511
9.173	-11.8512
("10.89.	-11.8512
("10.115.	-11.8512
8.214	-11.8512
=\"16908380	-11.8514
/1868	-11.8515
("10.66.1	-11.8515
08.132.	-11.8515
6233	-11.8516
8.39",	-11.8516
6','1	-11.8516
_1="10.135.	-11.8516
=\"123	-11.8516
▁481	-11.8516
/3169	-11.8517
19027	-11.8517
201.2	-11.8517
oti	-11.8518
("10.48.2	-11.8518
7",45	-11.8519
/1296	-11.8519
.175","	-11.852
8.247",	-11.852
147.1	-11.852
▁10.43.	-11.8521
209.10	-11.8521
.179.4	-11.8521
/1229	-11.8521
/370	-11.8521
11129	-11.8522
1288	-11.8522
10.153.23	-11.8523
118.71	-11.8523
245_2,	-11.8523
3349620	-11.8524
1/443;	-11.8524
54.149	-11.8525
/2294	-11.8526
8168/	-11.8526
("10.65.15	-11.8527
/3704	-11.8527
/662	-11.8528
("10.124.	-11.8529
/306	-11.8529
("10.175.	-11.8529
COM	-11.8529
/4153	-11.853
.160";$	-11.853
=\"16908327	-11.853
7.164	-11.853
4.121	-11.8532
647\",	-11.8532
24.132.	-11.8532
=\"961	-11.8532
1.253	-11.8534
=\"26	-11.8534
/10.53.	-11.8534
=\"169083110	-11.8535
17";$	-11.8535
4295	-11.8535
/24635	-11.8535
/608	-11.8536
▁10.35.	-11.8536
922;	-11.8537
.124";$	-11.8539
=\"16908344	-11.8539
/3036	-11.854
/3883	-11.854
5.228",1	-11.854
43.9	-11.8541
.162:	-11.8541
dayc	-11.8541
/1821	-11.8542
/4189	-11.8544
/2259	-11.8544
/3632	-11.8544
=\"16908436	-11.8544
133.21	-11.8545
0.167	-11.8545
▁243	-11.8545
/3746	-11.8546
141.2	-11.8546
.84.3	-11.8549
/2237	-11.8549
32504	-11.8551
004)	-11.8551
/19641	-11.8551
65375	-11.8551
/2649	-11.8552
123);	-11.8552
16.19	-11.8552
("127.0.0.1",25	-11.8553
=\"169083408	-11.8554
10.201.	-11.8554
=\"16908331	-11.8555
34);$	-11.8555
9);`/	-11.8556
75";	-11.8557
300\",	-11.8557
("10.231.	-11.8558
","25	-11.8559
127.0.0.1",53);`	-11.856
("10.161.1	-11.8561
124.7	-11.8562
4865	-11.8563
("10.172.	-11.8563
4355	-11.8564
618;	-11.8564
137/	-11.8565
10.138.23	-11.8566
10.71.4	-11.8566
_2=138	-11.8567
24912	-11.8568
110/	-11.8568
jj	-11.8568
/1318	-11.8568
7236	-11.8569
13683	-11.857
=\"86	-11.8571
738/	-11.8571
37);`	-11.8572
67.147	-11.8572
6470	-11.8573
6175	-11.8574
3.77	-11.8576
▁423	-11.8576
/2836	-11.8576
("10.77.	-11.8577
/2464	-11.8577
3068	-11.8577
2989	-11.8578
('10.15	-11.8579
/10.29.23	-11.8579
/2412	-11.858
69','	-11.8581
92\"	-11.8581
','302	-11.8583
6.97	-11.8584
/1360	-11.8585
/1356	-11.8586
71_2,	-11.8587
1072462	-11.8588
3.223.9	-11.8588
▁10.49.1	-11.859
30";$	-11.859
657\",	-11.859
168/	-11.859
4087	-11.8591
/3821	-11.8592
8546	-11.8592
2.141	-11.8594
6866	-11.8594
4/8000;	-11.8594
1",8000);	-11.8594
/269	-11.8594
316);	-11.8596
",439	-11.8597
4.194	-11.8598
7887	-11.8598
=\"16908356	-11.8601
267786	-11.8601
0577	-11.8602
9163	-11.8602
("10.231.1	-11.8602
65.4	-11.8603
("10.72.16	-11.8604
=\"169084273	-11.8604
/1752	-11.8606
("10.223.2	-11.8606
/360	-11.8607
300);	-11.8609
/1364	-11.8611
89",443);	-11.8611
("10.45.1	-11.8612
("10.213.1	-11.8613
/2935	-11.8614
9875/	-11.8614
2475	-11.8614
7.183	-11.8615
4",53);	-11.8615
1",80);	-11.8616
.240",443);	-11.8617
2','80	-11.8618
/1866	-11.8618
=\"93	-11.8619
/627	-11.8621
72376	-11.8622
/3388	-11.8624
/2492	-11.8625
240.6	-11.8626
81);`	-11.8631
4080	-11.8631
conf	-11.8634
▁10.232.9	-11.8636
6897	-11.8637
11);$	-11.8638
.89",	-11.8638
4368	-11.8639
97\"	-11.864
=\"16908354	-11.8641
/5558	-11.8643
107/	-11.8644
/10.164.1	-11.8644
/3223	-11.8644
1.239.1	-11.8647
12273	-11.8648
2.62.	-11.865
1.59	-11.865
/0/10.44.	-11.8651
=\"16908406	-11.8653
3045	-11.8656
5.197.	-11.8659
14213	-11.8661
='230	-11.8661
("127.0.0.1",18	-11.8662
3529	-11.8663
16439	-11.8669
386;	-11.8671
6380	-11.8671
('10.169.	-11.8673
4538	-11.8675
1969	-11.8676
('127.0.0.1','4	-11.8677
4089	-11.8679
5879	-11.868
/2411	-11.868
10.99.1	-11.8681
1.253.1	-11.8683
7495	-11.8685
1522	-11.8688
.95",	-11.8688
/2483	-11.869
3369	-11.8691
3398	-11.8691
=\"16908337	-11.8694
0547	-11.8694
("10.26.2	-11.8695
26502	-11.8697
=\"22	-11.8699
/1613	-11.8699
7627	-11.87
6161/	-11.87
("10.76.1	-11.8701
/127.0.0.1/11	-11.8702
219.15	-11.8702
0/443	-11.8702
9001);`/	-11.8704
/3076	-11.8706
9.146	-11.871
/19874	-11.8711
/3047	-11.8711
/975	-11.8712
114/	-11.8714
7345	-11.8715
7605	-11.8717
121";	-11.8719
8419	-11.8727
9018	-11.8727
9868	-11.8727
▁10.93.	-11.8728
3.57/	-11.8728
95\"	-11.8731
6800	-11.8736
28.97	-11.8738
24335	-11.8739
113.	-11.8741
11.47/22	-11.8742
2570	-11.8743
/1881	-11.8744
69948	-11.8748
/240	-11.875
22/80	-11.8751
/3663	-11.8753
1442	-11.8753
151/	-11.8756
/3666	-11.8757
.142.31	-11.8757
7815	-11.8762
=\"36	-11.8762
/4120	-11.8764
0.168.2	-11.8767
13/443	-11.8771
.196",8888);	-11.8772
1964	-11.8773
9235	-11.8775
/1567	-11.8781
10.181.16	-11.8783
38979	-11.8784
158";	-11.8789
34";	-11.879
("127.0.0.1","1	-11.879
/6222	-11.8791
76\"	-11.8793
("10.162.1	-11.8794
0370	-11.8794
0",8080);	-11.8796
1.208.	-11.8797
6",42	-11.88
_1="10.233.24	-11.8801
5.71.	-11.8802
/1260	-11.8805
5983	-11.8806
/452	-11.881
1976	-11.8812
▁10.39.	-11.8813
66822	-11.8818
41.20	-11.882
▁10.211.1	-11.8823
/3429	-11.8823
/1580	-11.8824
172.19	-11.8828
47','4	-11.8829
=\"110	-11.8834
/3373	-11.8836
8283	-11.8836
26476	-11.8839
49/9001	-11.8839
8480	-11.8841
5",11	-11.8841
/2579	-11.8846
1474	-11.8847
▁380	-11.8849
/2708	-11.8854
4",8888);`	-11.8856
/2671	-11.8856
192.13	-11.8856
5053	-11.8862
7240	-11.8866
("10.208.2	-11.8868
5700	-11.8869
134.23	-11.8869
2000	-11.887
/1395	-11.887
2.81	-11.8872
5772	-11.8878
1.80	-11.8881
/1529	-11.8886
/3431	-11.8887
▁10.85.	-11.889
35.2	-11.8892
.180","80	-11.8893
/0/127.0.0.1/29	-11.8893
/1008	-11.8896
("10.179.	-11.8903
64",25	-11.8907
/355	-11.8909
("10.196.1	-11.8911
5274	-11.8915
4825	-11.8916
/2272	-11.8919
/1732	-11.8923
("10.117.1	-11.8924
"10.185.5	-11.8927
/713	-11.8934
7289	-11.8935
5466	-11.894
9249	-11.8946
/127.0.0.1/26	-11.8947
7680	-11.8951
/2109	-11.8953
/3519	-11.8955
/3063	-11.8956
4.49.6	-11.8965
3380	-11.8966
.40/2	-11.8968
15\"	-11.8971
/3059	-11.8975
9472	-11.8975
10.144.17	-11.8977
/3328	-11.8978
8239	-11.8979
33/8000;	-11.8986
("10.154.7	-11.8987
9005	-11.8994
/3757	-11.8998
95.198	-11.9003
5388	-11.9007
8666	-11.9009
/10.131.	-11.9018
/159	-11.9022
/2555	-11.9026
45\"	-11.9028
8959	-11.903
▁554	-11.903
=\"75	-11.903
/2265	-11.9033
15\",	-11.9034
3482	-11.9039
23.99	-11.9042
3338	-11.9044
.77",8080);	-11.9049
27.0.0.1",8080))	-11.9053
35004	-11.9065
44959	-11.9066
66.226.1	-11.9068
10.83.1	-11.9069
2606	-11.9084
6745	-11.9089
=\"577	-11.9091
/4134	-11.9092
/1343	-11.9098
("10.36.	-11.9121
,"10.17	-11.9123
46.12	-11.913
1797	-11.913
("10.104.1	-11.9131
/3631	-11.9139
=\"38	-11.9147
/2870	-11.9152
7024);	-11.9155
11188	-11.916
45\",	-11.9162
.221",1	-11.9164
04\",	-11.9164
3.58	-11.9165
9.31.	-11.9167
3\"	-11.917
27596	-11.9181
88.11	-11.9189
7.45.16	-11.9204
0953	-11.9209
766/	-11.9211
38.9	-11.9231
0/8000	-11.9232
2700;	-11.9242
/3699	-11.9244
8",8888);	-11.9249
2768	-11.9251
54",80);	-11.9256
("10.171.	-11.9257
5477	-11.9258
0.59.	-11.926
=\"16908434	-11.9266
34.14	-11.9276
4718	-11.9279
/2600	-11.928
91.24	-11.9282
("10.191.2	-11.9287
7586	-11.9293
4174	-11.9298
4632/	-11.9302
1837	-11.9304
8.90",	-11.9316
("10.39.	-11.9319
/1259	-11.9331
▁607	-11.9332
0",8888);	-11.9334
2322/	-11.9334
10.207.13	-11.9338
2037	-11.9356
.249",	-11.936
549	-11.936
("10.144.3	-11.9364
/626	-11.9365
18/8080	-11.9368
71875	-11.9387
4.132",	-11.939
=\"16908435	-11.9399
/3403	-11.9401
.96/4	-11.9431
46.5	-11.9434
203.201	-11.9444
2389	-11.9444
195.3	-11.9448
7.83.23	-11.9451
/4003	-11.9458
_1="10.7.1	-11.9466
/3624	-11.9473
8770	-11.9479
5377	-11.9482
/3129	-11.9498
3.53.10	-11.9503
▁10.174.1	-11.9509
41848	-11.9513
6503	-11.9523
/886	-11.955
/1710	-11.9569
=\"34	-11.9571
/1877	-11.9582
40963	-11.9585
/2610	-11.9588
1.24	-11.9601
/992	-11.9602
/3551	-11.9623
("10.136.26.	-11.9643
('10.23	-11.9652
0/80	-11.9653
7714	-11.9654
30.185.1	-11.9684
7409	-11.9686
3291	-11.9687
3_2)	-11.9693
/3943	-11.9696
/1122	-11.9716
32";$	-11.9721
3533	-11.9736
5149	-11.9741
5544	-11.9744
533/	-11.9757
90959	-11.976
6375	-11.9762
53.23	-11.9765
▁292	-11.9771
.158.154	-11.9781
/0/10.14	-11.9802
0.109.4	-11.9833
43.132	-11.9837
24.24	-11.9837
",1358	-11.9839
1987	-11.9841
31.6	-11.9843
("10.188.	-11.9845
/3218	-11.9885
228.23	-11.9888
/553	-11.9918
/940	-11.9921
5108	-11.9945
/2604	-11.9949
4.241	-11.9966
/3484	-11.9968
8.57	-11.9975
=\"169084413	-11.9991
','37	-12.0006
0.64	-12.0011
/1114	-12.0023
10.90.13	-12.0035
/609	-12.0037
▁10.146.	-12.004
1625	-12.004
5.129.	-12.004
9116	-12.0043
_1="10.136.	-12.0056
/2330	-12.007
1932	-12.0073
5\"	-12.0087
/2797	-12.009
2595	-12.0107
3",48	-12.0108
▁10.45.	-12.0123
/2201	-12.0125
8978\",	-12.0131
/10.36.	-12.0135
/1125	-12.0142
",428	-12.0185
▁10.55.	-12.0195
811/	-12.0209
10.173.	-12.0211
/816	-12.0212
/489	-12.0214
("10.229.2	-12.0233
53.22	-12.0264
3.232	-12.0271
▁10.55.1	-12.0272
0.199	-12.0289
/2960	-12.029
/3094	-12.0298
0.155	-12.03
111.20	-12.0303
11\"	-12.0348
/127.0.0.1/41	-12.0356
4686	-12.038
/3848	-12.0381
/2534	-12.0384
/2591	-12.0384
/387	-12.0401
/2065	-12.0401
("10.86.	-12.0412
009/	-12.0422
2228/	-12.0429
("10.174.	-12.0463
("10.154.	-12.048
0.194	-12.048
7729	-12.049
/2538	-12.0507
/3595	-12.0521
("10.67.	-12.0523
10791	-12.0557
.151","	-12.0558
93.18	-12.0594
/3867	-12.0614
/1720	-12.0643
/10.186.2	-12.0643
▁10.69.	-12.0646
826/	-12.0658
/3555	-12.0663
/356	-12.0722
("10.127.9	-12.0727
,"10.97.1	-12.0746
61806	-12.0781
2.19	-12.0798
/3694	-12.082
10.202.6	-12.0825
/4018	-12.0835
32.123	-12.0907
9",17	-12.0908
3096	-12.0951
10.81.16	-12.0956
9702	-12.1009
/3070	-12.1014
1377	-12.1015
7.47	-12.104
("10.87.	-12.1057
/318	-12.1066
1518	-12.1082
▁10.12.1	-12.11
=\"679	-12.1163
4044	-12.1179
2659	-12.1222
0979	-12.1229
3214	-12.1235
,"10.16	-12.1259
728	-12.129
/1480	-12.1294
496	-12.1294
1748	-12.1306
20\"	-12.1348
7.164.2	-12.1349
3770	-12.1393
9','5	-12.1411
=\"13799	-12.1427
/1118	-12.1494
0.184.	-12.1502
36/8000	-12.1529
0.206.25	-12.1547
/1375	-12.156
6","22	-12.1579
5835	-12.1595
▁10.28.1	-12.1615
("10.173.17	-12.1666
5.108.1	-12.1671
906;	-12.1678
8871	-12.1681
7603	-12.1691
.243",4	-12.1734
7491	-12.1768
("10.7.7	-12.1774
9723	-12.1798
35",80);	-12.1819
.146";	-12.1835
56.11	-12.188
4:2	-12.1884
("127.0.0.1",48	-12.1911
=\"169083196	-12.195
.167.63	-12.1968
31.21	-12.2009
▁10.136.3	-12.2045
7.219	-12.209
4920	-12.2098
10.231.2	-12.2115
231.19	-12.2166
8803	-12.2201
35752	-12.2216
("10.38.	-12.2217
/168	-12.227
63.188	-12.2282
827/	-12.2287
81.140	-12.2318
0238	-12.2331
("10.160.	-12.2339
("10.81.1	-12.2379
10.38.8	-12.2395
25);$	-12.2404
561\"	-12.243
▁10.209.1	-12.2474
487	-12.2505
8.131.1	-12.2521
002/	-12.2596
189/	-12.2657
125.145",8	-12.2681
5304	-12.27
/875	-12.2746
253.1	-12.2751
111/	-12.2874
198\"	-12.2885
('10.194.	-12.2975
0.80.1	-12.3059
222.	-12.3077
7377	-12.3179
1379933	-12.326
52.11	-12.3362
64160	-12.3364
0.104.	-12.3394
.196","	-12.3419
▁10.6.1	-12.3428
/10.55.10	-12.3452
",5718	-12.3482
